// This is a standard TensorFlow Lite FlatBuffer model file that has been
// converted into a C data array, so it can be easily compiled into a binary
// for devices that don't have a file system. It was created using the command:
// xxd -i model.tflite > model.cc

#include "tensorflow/lite/micro/examples/bci_eegnet/eegnet_model/model.h"

// We need to keep the data array aligned on some architectures.
#ifdef __has_attribute
#define HAVE_ATTRIBUTE(x) __has_attribute(x)
#else
#define HAVE_ATTRIBUTE(x) 0
#endif
#if HAVE_ATTRIBUTE(aligned) || (defined(__GNUC__) && !defined(__clang__))
#define DATA_ALIGN_ATTRIBUTE __attribute__((aligned(4)))
#else
#define DATA_ALIGN_ATTRIBUTE
#endif

const unsigned char g_model[] DATA_ALIGN_ATTRIBUTE = {
  0x28, 0x00, 0x00, 0x00, 0x54, 0x46, 0x4c, 0x33, 0x00, 0x00, 0x00, 0x00,
  0x00, 0x00, 0x00, 0x00, 0x00, 0x00, 0x00, 0x00, 0x14, 0x00, 0x20, 0x00,
  0x04, 0x00, 0x08, 0x00, 0x0c, 0x00, 0x10, 0x00, 0x14, 0x00, 0x00, 0x00,
  0x18, 0x00, 0x1c, 0x00, 0x14, 0x00, 0x00, 0x00, 0x03, 0x00, 0x00, 0x00,
  0x58, 0x35, 0x00, 0x00, 0x68, 0x23, 0x00, 0x00, 0x50, 0x23, 0x00, 0x00,
  0xc8, 0x00, 0x00, 0x00, 0x90, 0x00, 0x00, 0x00, 0x04, 0x00, 0x00, 0x00,
  0x01, 0x00, 0x00, 0x00, 0x10, 0x00, 0x00, 0x00, 0x0c, 0x00, 0x14, 0x00,
  0x04, 0x00, 0x08, 0x00, 0x0c, 0x00, 0x10, 0x00, 0x0c, 0x00, 0x00, 0x00,
  0x54, 0x00, 0x00, 0x00, 0x2c, 0x00, 0x00, 0x00, 0x14, 0x00, 0x00, 0x00,
  0x04, 0x00, 0x00, 0x00, 0x05, 0x00, 0x00, 0x00, 0x73, 0x65, 0x72, 0x76,
  0x65, 0x00, 0x00, 0x00, 0x0f, 0x00, 0x00, 0x00, 0x73, 0x65, 0x72, 0x76,
  0x69, 0x6e, 0x67, 0x5f, 0x64, 0x65, 0x66, 0x61, 0x75, 0x6c, 0x74, 0x00,
  0x01, 0x00, 0x00, 0x00, 0x04, 0x00, 0x00, 0x00, 0xc0, 0xff, 0xff, 0xff,
  0x08, 0x00, 0x00, 0x00, 0x28, 0x00, 0x00, 0x00, 0x08, 0x00, 0x00, 0x00,
  0x6f, 0x75, 0x74, 0x70, 0x75, 0x74, 0x5f, 0x30, 0x00, 0x00, 0x00, 0x00,
  0x01, 0x00, 0x00, 0x00, 0x04, 0x00, 0x00, 0x00, 0x6a, 0xdc, 0xff, 0xff,
  0x04, 0x00, 0x00, 0x00, 0x07, 0x00, 0x00, 0x00, 0x69, 0x6e, 0x70, 0x75,
  0x74, 0x2e, 0x31, 0x00, 0x01, 0x00, 0x00, 0x00, 0x0c, 0x00, 0x00, 0x00,
  0x08, 0x00, 0x0c, 0x00, 0x04, 0x00, 0x08, 0x00, 0x08, 0x00, 0x00, 0x00,
  0x08, 0x00, 0x00, 0x00, 0x2a, 0x00, 0x00, 0x00, 0x13, 0x00, 0x00, 0x00,
  0x6d, 0x69, 0x6e, 0x5f, 0x72, 0x75, 0x6e, 0x74, 0x69, 0x6d, 0x65, 0x5f,
  0x76, 0x65, 0x72, 0x73, 0x69, 0x6f, 0x6e, 0x00, 0x2b, 0x00, 0x00, 0x00,
  0x74, 0x22, 0x00, 0x00, 0x60, 0x22, 0x00, 0x00, 0x34, 0x22, 0x00, 0x00,
  0xe0, 0x21, 0x00, 0x00, 0x8c, 0x21, 0x00, 0x00, 0x58, 0x21, 0x00, 0x00,
  0x44, 0x1d, 0x00, 0x00, 0x30, 0x19, 0x00, 0x00, 0xdc, 0x18, 0x00, 0x00,
  0xc8, 0x14, 0x00, 0x00, 0xb4, 0x0a, 0x00, 0x00, 0x90, 0x0a, 0x00, 0x00,
  0x5c, 0x0a, 0x00, 0x00, 0x28, 0x0a, 0x00, 0x00, 0xf4, 0x09, 0x00, 0x00,
  0xd0, 0x09, 0x00, 0x00, 0xac, 0x09, 0x00, 0x00, 0x88, 0x09, 0x00, 0x00,
  0xf4, 0x01, 0x00, 0x00, 0xe8, 0x01, 0x00, 0x00, 0xd4, 0x01, 0x00, 0x00,
  0xc0, 0x01, 0x00, 0x00, 0xac, 0x01, 0x00, 0x00, 0x98, 0x01, 0x00, 0x00,
  0x84, 0x01, 0x00, 0x00, 0x70, 0x01, 0x00, 0x00, 0x5c, 0x01, 0x00, 0x00,
  0x48, 0x01, 0x00, 0x00, 0x34, 0x01, 0x00, 0x00, 0x20, 0x01, 0x00, 0x00,
  0x0c, 0x01, 0x00, 0x00, 0xf8, 0x00, 0x00, 0x00, 0xe4, 0x00, 0x00, 0x00,
  0xd0, 0x00, 0x00, 0x00, 0xbc, 0x00, 0x00, 0x00, 0xa8, 0x00, 0x00, 0x00,
  0x94, 0x00, 0x00, 0x00, 0x80, 0x00, 0x00, 0x00, 0x6c, 0x00, 0x00, 0x00,
  0x58, 0x00, 0x00, 0x00, 0x44, 0x00, 0x00, 0x00, 0x30, 0x00, 0x00, 0x00,
  0x04, 0x00, 0x00, 0x00, 0x62, 0xdd, 0xff, 0xff, 0x04, 0x00, 0x00, 0x00,
  0x10, 0x00, 0x00, 0x00, 0x31, 0x2e, 0x31, 0x34, 0x2e, 0x30, 0x00, 0x00,
  0x00, 0x00, 0x00, 0x00, 0x00, 0x00, 0x00, 0x00, 0x00, 0x00, 0x00, 0x00,
  0x00, 0x00, 0x00, 0x00, 0x00, 0x00, 0x00, 0x00, 0x90, 0xcc, 0xff, 0xff,
  0x00, 0x00, 0x00, 0x00, 0x00, 0x00, 0x00, 0x00, 0x00, 0x00, 0x00, 0x00,
  0xa0, 0xcc, 0xff, 0xff, 0x00, 0x00, 0x00, 0x00, 0x00, 0x00, 0x00, 0x00,
  0x00, 0x00, 0x00, 0x00, 0xb0, 0xcc, 0xff, 0xff, 0x00, 0x00, 0x00, 0x00,
  0x00, 0x00, 0x00, 0x00, 0x00, 0x00, 0x00, 0x00, 0xc0, 0xcc, 0xff, 0xff,
  0x00, 0x00, 0x00, 0x00, 0x00, 0x00, 0x00, 0x00, 0x00, 0x00, 0x00, 0x00,
  0xd0, 0xcc, 0xff, 0xff, 0x00, 0x00, 0x00, 0x00, 0x00, 0x00, 0x00, 0x00,
  0x00, 0x00, 0x00, 0x00, 0xe0, 0xcc, 0xff, 0xff, 0x00, 0x00, 0x00, 0x00,
  0x00, 0x00, 0x00, 0x00, 0x00, 0x00, 0x00, 0x00, 0xf0, 0xcc, 0xff, 0xff,
  0x00, 0x00, 0x00, 0x00, 0x00, 0x00, 0x00, 0x00, 0x00, 0x00, 0x00, 0x00,
  0x00, 0xcd, 0xff, 0xff, 0x00, 0x00, 0x00, 0x00, 0x00, 0x00, 0x00, 0x00,
  0x00, 0x00, 0x00, 0x00, 0x10, 0xcd, 0xff, 0xff, 0x00, 0x00, 0x00, 0x00,
  0x00, 0x00, 0x00, 0x00, 0x00, 0x00, 0x00, 0x00, 0x20, 0xcd, 0xff, 0xff,
  0x00, 0x00, 0x00, 0x00, 0x00, 0x00, 0x00, 0x00, 0x00, 0x00, 0x00, 0x00,
  0x30, 0xcd, 0xff, 0xff, 0x00, 0x00, 0x00, 0x00, 0x00, 0x00, 0x00, 0x00,
  0x00, 0x00, 0x00, 0x00, 0x40, 0xcd, 0xff, 0xff, 0x00, 0x00, 0x00, 0x00,
  0x00, 0x00, 0x00, 0x00, 0x00, 0x00, 0x00, 0x00, 0x50, 0xcd, 0xff, 0xff,
  0x00, 0x00, 0x00, 0x00, 0x00, 0x00, 0x00, 0x00, 0x00, 0x00, 0x00, 0x00,
  0x60, 0xcd, 0xff, 0xff, 0x00, 0x00, 0x00, 0x00, 0x00, 0x00, 0x00, 0x00,
  0x00, 0x00, 0x00, 0x00, 0x70, 0xcd, 0xff, 0xff, 0x00, 0x00, 0x00, 0x00,
  0x00, 0x00, 0x00, 0x00, 0x00, 0x00, 0x00, 0x00, 0x80, 0xcd, 0xff, 0xff,
  0x00, 0x00, 0x00, 0x00, 0x00, 0x00, 0x00, 0x00, 0x00, 0x00, 0x00, 0x00,
  0x90, 0xcd, 0xff, 0xff, 0x00, 0x00, 0x00, 0x00, 0x00, 0x00, 0x00, 0x00,
  0x00, 0x00, 0x00, 0x00, 0xa0, 0xcd, 0xff, 0xff, 0x00, 0x00, 0x00, 0x00,
  0x00, 0x00, 0x00, 0x00, 0x00, 0x00, 0x00, 0x00, 0xb0, 0xcd, 0xff, 0xff,
  0x00, 0x00, 0x00, 0x00, 0x00, 0x00, 0x00, 0x00, 0x00, 0x00, 0x00, 0x00,
  0xc0, 0xcd, 0xff, 0xff, 0x00, 0x00, 0x00, 0x00, 0x00, 0x00, 0x00, 0x00,
  0x00, 0x00, 0x00, 0x00, 0xd0, 0xcd, 0xff, 0xff, 0x00, 0x00, 0x00, 0x00,
  0x00, 0x00, 0x00, 0x00, 0x00, 0x00, 0x00, 0x00, 0xe0, 0xcd, 0xff, 0xff,
  0x00, 0x00, 0x00, 0x00, 0x00, 0x00, 0x00, 0x00, 0x00, 0x00, 0x00, 0x00,
  0xf0, 0xcd, 0xff, 0xff, 0x00, 0x00, 0x00, 0x00, 0xf2, 0xde, 0xff, 0xff,
  0x04, 0x00, 0x00, 0x00, 0x80, 0x07, 0x00, 0x00, 0xad, 0x57, 0x5c, 0xbc,
  0x33, 0xf4, 0x0d, 0xbf, 0xb4, 0x0a, 0x0a, 0x3d, 0xdf, 0xcc, 0x2f, 0x3e,
  0xcc, 0xfe, 0xa4, 0xbb, 0xde, 0x89, 0x5f, 0xbe, 0x1d, 0x82, 0x0f, 0x3c,
  0xa9, 0xab, 0x08, 0x3e, 0xc5, 0x37, 0xc0, 0x3d, 0xdb, 0xb1, 0xa5, 0x3d,
  0xa7, 0x65, 0x01, 0x3d, 0x37, 0x80, 0xcc, 0x3d, 0x3f, 0xb1, 0x04, 0xbe,
  0xd6, 0xc6, 0x32, 0xbd, 0xcc, 0xc7, 0x80, 0x3d, 0x4a, 0x70, 0x8f, 0x3e,
  0x2a, 0x95, 0x90, 0xbe, 0x6d, 0x17, 0x2f, 0x3e, 0x17, 0xe7, 0x80, 0x3e,
  0x3c, 0x8e, 0x2b, 0x3c, 0x23, 0x7b, 0x1d, 0x3d, 0xdd, 0x24, 0xcc, 0xbc,
  0xce, 0x04, 0x16, 0xbe, 0x57, 0xa2, 0x83, 0xbd, 0xd7, 0x1d, 0x03, 0xbe,
  0xbb, 0x7d, 0xd0, 0xbd, 0x56, 0xfd, 0xa5, 0xbd, 0xc2, 0x23, 0x0e, 0xbc,
  0xf7, 0x06, 0xdc, 0xbb, 0x3c, 0x7d, 0xd9, 0xbc, 0xaa, 0xd0, 0x2e, 0x3e,
  0x14, 0xa2, 0xc7, 0x3e, 0x20, 0x59, 0x81, 0x3e, 0x7b, 0x4e, 0xb0, 0x3d,
  0xbe, 0xba, 0x42, 0x3d, 0x40, 0xc3, 0x2f, 0xbe, 0x76, 0xe3, 0x63, 0x3c,
  0x81, 0xf9, 0xd4, 0x3c, 0x09, 0x7e, 0xa0, 0xbd, 0xf9, 0x15, 0xc0, 0xbd,
  0x16, 0x3f, 0x04, 0xbe, 0xb4, 0xb3, 0x88, 0xbe, 0xb9, 0x56, 0x80, 0xbe,
  0xfe, 0x3f, 0x8f, 0x3c, 0x63, 0xcd, 0x14, 0xbe, 0x53, 0xc0, 0xc4, 0xbd,
  0x93, 0xbb, 0x21, 0xbf, 0xcf, 0xa1, 0x1b, 0xbe, 0xe8, 0x3c, 0x9a, 0x3d,
  0xe7, 0xce, 0xf7, 0x3d, 0x09, 0x17, 0x00, 0x3c, 0x6c, 0x38, 0x4b, 0xbd,
  0xfb, 0x0d, 0xa1, 0x3d, 0x8b, 0xb0, 0x3c, 0x3d, 0xbd, 0x5b, 0xfc, 0xbd,
  0xe0, 0x32, 0x39, 0x3d, 0x10, 0xe9, 0x07, 0x3e, 0x8d, 0x6b, 0x8a, 0xbe,
  0x97, 0xa3, 0x68, 0x3d, 0x03, 0xab, 0xa1, 0x3e, 0x4e, 0xad, 0x76, 0x3d,
  0xc7, 0xb1, 0x0c, 0x3f, 0x46, 0x1f, 0x7c, 0x3d, 0xe6, 0xba, 0x01, 0xbe,
  0x6c, 0x8f, 0x9f, 0xbd, 0x5c, 0x4a, 0x93, 0x3d, 0xd6, 0x78, 0x69, 0xbd,
  0x36, 0xbb, 0x1d, 0xbe, 0xaf, 0xa2, 0x98, 0x3d, 0xc1, 0x7f, 0xc1, 0xbc,
  0x81, 0x14, 0x24, 0xbd, 0xdb, 0x43, 0xe7, 0xbd, 0x33, 0xcb, 0xc2, 0x3d,
  0xde, 0x19, 0xac, 0xbd, 0x7d, 0xf7, 0x02, 0xbe, 0x94, 0x74, 0xa4, 0xbe,
  0x74, 0xf9, 0x65, 0xbe, 0xa6, 0xeb, 0x90, 0xbd, 0x6b, 0xc8, 0xf6, 0x3d,
  0x47, 0xaf, 0x6c, 0x3e, 0x1a, 0xc5, 0xa4, 0x3e, 0xe8, 0xb2, 0x12, 0x3e,
  0x54, 0xde, 0xa8, 0x3d, 0xd8, 0xd6, 0x0d, 0x3e, 0x7d, 0xbc, 0xbf, 0x3d,
  0x65, 0x79, 0x66, 0x3d, 0xc6, 0xf4, 0xc8, 0x3d, 0x6f, 0x1e, 0xc8, 0x3d,
  0x2b, 0x9c, 0xe6, 0x3d, 0x55, 0xbb, 0xd0, 0x3d, 0x7c, 0xb3, 0xd7, 0x3d,
  0xff, 0x72, 0x28, 0x3f, 0xe3, 0x93, 0x4f, 0x3e, 0x25, 0xc4, 0xaf, 0xbd,
  0x61, 0xb0, 0x01, 0x3d, 0x10, 0x1f, 0x53, 0xbd, 0x48, 0x4d, 0x48, 0x3d,
  0xfa, 0xfa, 0xee, 0xbc, 0x7f, 0x90, 0x43, 0xb9, 0x86, 0xdf, 0x39, 0xbd,
  0xb8, 0x95, 0xb1, 0x3c, 0x7e, 0xfe, 0x28, 0x3c, 0x08, 0xc6, 0xa2, 0x3d,
  0x3f, 0xf6, 0x89, 0xbd, 0x85, 0xf3, 0x3a, 0xbe, 0x0e, 0xa5, 0x87, 0xbd,
  0x16, 0x6d, 0x1b, 0x3f, 0xa4, 0x1a, 0xe4, 0xbc, 0xd0, 0xec, 0xd9, 0x3d,
  0xda, 0x64, 0x98, 0xbc, 0x2f, 0x5e, 0xdf, 0xbc, 0xdc, 0xb3, 0xe4, 0x3b,
  0xcd, 0xeb, 0xf2, 0xba, 0x02, 0xc2, 0x26, 0x3e, 0xf9, 0x70, 0x2d, 0xbd,
  0x86, 0x86, 0x56, 0xbc, 0xee, 0xd8, 0x22, 0x3e, 0xa7, 0x3b, 0x27, 0xbe,
  0xbf, 0x9c, 0xe1, 0xbd, 0xe6, 0xa0, 0x02, 0xbe, 0x20, 0x49, 0x0e, 0x3e,
  0xc6, 0x2d, 0xb3, 0x3e, 0xf2, 0x8c, 0x89, 0x3e, 0x31, 0xf5, 0x91, 0xbd,
  0x9a, 0x0d, 0x7e, 0x3e, 0x73, 0x11, 0x06, 0xbb, 0x0b, 0xdd, 0xf6, 0xbd,
  0xdf, 0x57, 0xe4, 0xbd, 0x38, 0x15, 0x9c, 0xbd, 0x2e, 0xf1, 0x31, 0xbe,
  0xa5, 0x5a, 0x20, 0xbc, 0x2e, 0xcd, 0x1b, 0xbe, 0x63, 0x5e, 0x65, 0xbe,
  0xec, 0x70, 0x8d, 0x3c, 0x5d, 0x7f, 0xc9, 0xbc, 0x6f, 0x05, 0x31, 0xbd,
  0x7f, 0x10, 0x1f, 0x3f, 0x31, 0x77, 0x2c, 0x3d, 0x9b, 0xfe, 0xb0, 0x3c,
  0x14, 0x83, 0x74, 0xbd, 0x76, 0xb6, 0xbb, 0x3b, 0x42, 0x8b, 0x08, 0x3d,
  0x18, 0xd4, 0x48, 0xbd, 0x8e, 0x56, 0xf8, 0x3d, 0xf9, 0x06, 0xde, 0x3c,
  0x58, 0xe2, 0x8e, 0xbb, 0x27, 0xdc, 0xcf, 0x3d, 0xc1, 0xea, 0x0e, 0xbe,
  0x17, 0x55, 0xdc, 0xbb, 0x3c, 0x88, 0x86, 0xbe, 0x11, 0x86, 0x2b, 0xbd,
  0xc2, 0x52, 0x11, 0xbf, 0x16, 0x6f, 0xab, 0x3d, 0x8a, 0x9d, 0xcd, 0xbd,
  0x9c, 0x63, 0x30, 0x3e, 0x11, 0x20, 0x8b, 0x3d, 0x25, 0x3d, 0x4b, 0xbd,
  0x22, 0xc4, 0x2a, 0x3d, 0x04, 0x59, 0x14, 0x3b, 0x74, 0x93, 0x2f, 0x3d,
  0x80, 0x32, 0xcb, 0x38, 0x18, 0x38, 0xed, 0xbd, 0x48, 0x50, 0xa9, 0x3d,
  0x8c, 0x2d, 0x44, 0x3d, 0xdf, 0x0a, 0x95, 0x3e, 0x85, 0x7a, 0xeb, 0x3d,
  0x46, 0x46, 0xba, 0x3e, 0x4e, 0x99, 0x9b, 0x3e, 0xc3, 0xe6, 0xaf, 0x3d,
  0x12, 0x12, 0xe0, 0x3d, 0xb1, 0x7d, 0xea, 0xbc, 0x77, 0x69, 0xc5, 0xbc,
  0xd5, 0x1a, 0x34, 0xbe, 0xe5, 0x8d, 0x12, 0xbe, 0x7d, 0x02, 0x70, 0xbe,
  0x08, 0x15, 0xec, 0xbd, 0x58, 0x70, 0x1d, 0xbe, 0x2e, 0x4a, 0x05, 0xbd,
  0x73, 0xba, 0xb9, 0xbd, 0x79, 0xf3, 0xd5, 0xbc, 0xbc, 0x10, 0xb3, 0x3d,
  0x3d, 0xa0, 0xe6, 0xbe, 0x55, 0x16, 0x19, 0x3e, 0xc6, 0x4e, 0x58, 0xbc,
  0xd4, 0x4b, 0x89, 0x3e, 0x2b, 0x6a, 0x0a, 0x3e, 0x83, 0x17, 0xb3, 0xbd,
  0x5f, 0x15, 0xa4, 0xbd, 0xf0, 0xe5, 0xa7, 0x3d, 0x4c, 0x6b, 0x6b, 0xbe,
  0x39, 0xa0, 0x46, 0x3e, 0xdd, 0x22, 0x2c, 0xbc, 0x72, 0x1d, 0x26, 0x3d,
  0x1a, 0xa0, 0x15, 0xbd, 0x3a, 0x40, 0x18, 0x3e, 0x94, 0xb0, 0xfa, 0x3d,
  0x77, 0x8b, 0xd5, 0xbe, 0xcb, 0x30, 0x53, 0x3e, 0x82, 0x9f, 0x44, 0x3e,
  0xba, 0x79, 0xaa, 0x3d, 0x32, 0x7a, 0x51, 0xbc, 0xda, 0x49, 0xe6, 0xbd,
  0x79, 0x80, 0x34, 0xbe, 0xa7, 0xe6, 0xf7, 0xba, 0xa8, 0x82, 0x06, 0xbd,
  0xd0, 0xa5, 0xbd, 0x3d, 0x57, 0x85, 0x11, 0x3d, 0xec, 0xe9, 0x45, 0xbc,
  0x9d, 0x57, 0x8d, 0xbd, 0x4c, 0x42, 0x78, 0x3d, 0x34, 0x68, 0x1b, 0x3e,
  0xc1, 0x26, 0x8f, 0x3e, 0x73, 0x3d, 0x95, 0x3e, 0xb8, 0x39, 0x00, 0xbd,
  0xcf, 0x74, 0x25, 0x3d, 0xaa, 0x36, 0x9d, 0xbc, 0x84, 0xed, 0x2c, 0xbe,
  0x4f, 0xcd, 0x7f, 0xbe, 0x4e, 0x4b, 0x5c, 0xbe, 0x34, 0xed, 0x86, 0xbe,
  0x6e, 0x87, 0xaf, 0xbd, 0x72, 0xcd, 0x80, 0xbe, 0xc1, 0xe6, 0xdc, 0xbd,
  0xd9, 0x46, 0x1f, 0xbe, 0x81, 0x66, 0xa1, 0xbe, 0x35, 0xd9, 0x4e, 0x3e,
  0x1c, 0x55, 0xb9, 0x3e, 0x05, 0x71, 0x81, 0x3e, 0x1b, 0x58, 0xc5, 0x3b,
  0xaa, 0x33, 0x11, 0x3d, 0x99, 0xf3, 0xe2, 0xbd, 0x19, 0x2a, 0x7a, 0x3d,
  0xf0, 0x67, 0xb2, 0xbd, 0xe6, 0xd9, 0x80, 0xbd, 0x4d, 0xfe, 0xef, 0xbd,
  0x74, 0x4d, 0x6e, 0xbe, 0x98, 0xe3, 0x65, 0xbe, 0xba, 0xf2, 0xf6, 0x3c,
  0x51, 0x76, 0x4c, 0xbd, 0x9d, 0x01, 0x81, 0xbc, 0xe7, 0x7d, 0x4a, 0x3c,
  0x32, 0x53, 0x0a, 0x3f, 0x99, 0x1e, 0xba, 0xbd, 0x43, 0xe3, 0x19, 0xbe,
  0x9d, 0x47, 0xeb, 0xbb, 0x7b, 0xe3, 0x92, 0x3e, 0x29, 0xe6, 0x63, 0xbd,
  0x6d, 0x18, 0x17, 0xbe, 0x8b, 0x30, 0x29, 0xbe, 0x4b, 0x0d, 0x8b, 0xbd,
  0x49, 0x43, 0x95, 0xbd, 0xbc, 0x80, 0xbe, 0xbd, 0xa9, 0x43, 0x46, 0x3e,
  0x38, 0xd0, 0x1c, 0xbd, 0xd3, 0x16, 0xae, 0xbd, 0x14, 0x2b, 0xaa, 0xbe,
  0x06, 0x8d, 0xb0, 0x3e, 0x6f, 0xe8, 0x4d, 0xbe, 0x6c, 0x2a, 0xa5, 0xbe,
  0x54, 0x98, 0x85, 0xbd, 0xb4, 0xdc, 0x01, 0xbd, 0x9c, 0xa9, 0x8e, 0xbc,
  0x1e, 0x3e, 0x1b, 0x3e, 0x03, 0x21, 0x8e, 0x3d, 0x84, 0xc3, 0x0f, 0x3e,
  0x40, 0x90, 0xd2, 0x3d, 0xbc, 0x3c, 0xcc, 0x3c, 0x9d, 0x59, 0x84, 0x3c,
  0xa4, 0x2a, 0xab, 0x3d, 0xe4, 0x78, 0x05, 0xbc, 0x58, 0x35, 0x40, 0xbe,
  0xc9, 0x7d, 0xf6, 0xbe, 0x42, 0xd7, 0x4f, 0xbe, 0x87, 0x96, 0x2c, 0xbe,
  0xca, 0xfb, 0x2f, 0x3d, 0x21, 0x31, 0x1f, 0x3e, 0xa7, 0xc4, 0x76, 0xbd,
  0x99, 0xf4, 0x3e, 0x3d, 0x3a, 0xa5, 0xea, 0x3c, 0x1c, 0x45, 0xe2, 0x3d,
  0x0b, 0xd0, 0x97, 0x3d, 0xcc, 0x6c, 0x41, 0x3e, 0x9c, 0xf9, 0x5a, 0x3e,
  0xc0, 0x6e, 0xc4, 0x3b, 0x7e, 0x28, 0x0f, 0x3e, 0x37, 0x8f, 0x38, 0x3e,
  0x48, 0xfa, 0x28, 0x3f, 0x98, 0xcc, 0xae, 0x3d, 0xc9, 0xc1, 0x79, 0x3c,
  0x12, 0xb9, 0x9c, 0xbd, 0x5c, 0xa6, 0xa5, 0xbc, 0x89, 0xeb, 0x91, 0xbb,
  0x2a, 0xdc, 0x54, 0xbd, 0x5d, 0x97, 0x8d, 0x3d, 0xec, 0x75, 0x2c, 0x3e,
  0x38, 0x3f, 0x1a, 0xbe, 0x7c, 0xf0, 0xa3, 0xbc, 0xb1, 0xe3, 0x34, 0x3e,
  0x26, 0x91, 0x27, 0xbd, 0xdb, 0x04, 0x93, 0xbe, 0x60, 0x5e, 0xdc, 0xbd,
  0xdf, 0x16, 0x19, 0xbf, 0xbe, 0x8b, 0xbc, 0x3c, 0x72, 0x19, 0x12, 0x3e,
  0xe7, 0x04, 0x05, 0x3e, 0x1a, 0x3c, 0x5a, 0xbd, 0xf7, 0x36, 0x8b, 0x3d,
  0x19, 0xd0, 0x3b, 0x3e, 0x88, 0x8b, 0xd6, 0xbd, 0x54, 0x3e, 0x25, 0x3d,
  0xf5, 0x8a, 0x85, 0xbd, 0x06, 0x5e, 0x67, 0x3d, 0x8b, 0xea, 0x08, 0xbc,
  0xf5, 0x71, 0x04, 0xbd, 0xde, 0x30, 0x33, 0x3e, 0x27, 0x90, 0x6d, 0x3e,
  0x46, 0x9d, 0x7a, 0x3e, 0xf2, 0x5f, 0x1c, 0x3d, 0x9e, 0x0b, 0x04, 0xbe,
  0x38, 0x48, 0x59, 0xbe, 0x83, 0xb6, 0xa5, 0xbe, 0xcc, 0xf7, 0x3d, 0xbe,
  0x25, 0x2a, 0x69, 0xbd, 0x92, 0x9b, 0xf2, 0xbd, 0x9a, 0x39, 0xfb, 0xbc,
  0xf2, 0x04, 0x09, 0x3c, 0xb2, 0x1d, 0x3e, 0xbe, 0xbb, 0x88, 0x42, 0xbe,
  0x68, 0x7a, 0x0e, 0xbc, 0xa8, 0xbd, 0xce, 0xbd, 0x23, 0x35, 0x13, 0xbe,
  0x32, 0x16, 0x3c, 0xbf, 0xf5, 0x45, 0x0a, 0xbe, 0xb5, 0x45, 0x00, 0x3e,
  0xf3, 0x8d, 0xb8, 0xbb, 0x2e, 0x89, 0x75, 0x3d, 0x9e, 0xf8, 0x55, 0xbd,
  0x09, 0x2f, 0xcb, 0xbc, 0xab, 0xfb, 0x2c, 0xbc, 0xbe, 0x18, 0x96, 0x3d,
  0x9b, 0xdd, 0x66, 0xbd, 0x26, 0x58, 0xb4, 0x3d, 0xcc, 0xc0, 0xdb, 0xbc,
  0xf4, 0x48, 0x10, 0x3d, 0xbf, 0x63, 0x4f, 0x3e, 0xd7, 0xbf, 0x9b, 0x3d,
  0xc6, 0xe3, 0x28, 0xbf, 0xdc, 0x42, 0x8b, 0xbc, 0xd7, 0x58, 0x28, 0xbd,
  0xc4, 0x5c, 0x3a, 0x3d, 0xc0, 0xc1, 0x79, 0xbd, 0x4f, 0x8c, 0x3d, 0x3d,
  0x72, 0x4f, 0x1b, 0xbd, 0xf7, 0xe3, 0xe1, 0xbd, 0xb4, 0x2f, 0x5f, 0x3d,
  0x7a, 0xec, 0x03, 0xbd, 0x38, 0xa3, 0x32, 0xbe, 0xe3, 0xfd, 0x87, 0x3e,
  0xde, 0x28, 0x03, 0x3e, 0xb6, 0x87, 0xd8, 0x3d, 0x9b, 0x65, 0x29, 0xbd,
  0x04, 0x8d, 0x98, 0xbe, 0x0c, 0xbd, 0x99, 0xbe, 0x4f, 0x5f, 0xa6, 0x3d,
  0x3c, 0xa8, 0x3f, 0xbe, 0xb8, 0x62, 0xb6, 0xbd, 0x91, 0x98, 0x29, 0x3e,
  0xa5, 0xb9, 0xc8, 0x3d, 0x3d, 0xd3, 0xbc, 0xbc, 0x27, 0xeb, 0x18, 0x3e,
  0x69, 0xe0, 0x3b, 0x3d, 0x1e, 0x43, 0x03, 0x3e, 0x1a, 0x18, 0x20, 0x3e,
  0x08, 0x4b, 0x13, 0xbd, 0xae, 0x2c, 0x13, 0x3e, 0x49, 0x80, 0xd4, 0x3d,
  0xfd, 0x34, 0x29, 0xbf, 0xab, 0xd8, 0xb8, 0xbd, 0x1a, 0xa1, 0xd7, 0xbc,
  0x5b, 0x26, 0xb8, 0x3d, 0x8e, 0x69, 0x2a, 0xbc, 0x44, 0xb8, 0xb5, 0xbd,
  0xfc, 0xe5, 0x36, 0xbd, 0x84, 0xa2, 0x28, 0xbe, 0xd3, 0x5a, 0xe7, 0x3c,
  0x98, 0x47, 0x69, 0x3d, 0xe9, 0x9a, 0x0e, 0xbe, 0x74, 0x94, 0x99, 0x3d,
  0xc2, 0x23, 0xeb, 0x3b, 0x04, 0x5a, 0x4a, 0x3e, 0xcc, 0x85, 0x70, 0xbb,
  0x78, 0x71, 0x19, 0x3f, 0xf6, 0x93, 0x09, 0xbe, 0x7d, 0xee, 0xe3, 0x3d,
  0x6c, 0x1b, 0x5a, 0xbd, 0x0a, 0xa1, 0x09, 0xbc, 0x07, 0xdc, 0x1a, 0xbd,
  0xd7, 0xc6, 0x7e, 0xbd, 0xca, 0x5e, 0x02, 0xbd, 0x05, 0x71, 0x9c, 0xbd,
  0x67, 0x96, 0xa9, 0xbc, 0x74, 0xc4, 0x94, 0x3d, 0x98, 0x15, 0x86, 0xbd,
  0x75, 0xbe, 0x59, 0x3d, 0xc5, 0x56, 0x8e, 0xbe, 0x0b, 0x4b, 0x6d, 0xbe,
  0x03, 0x6d, 0xb6, 0xbe, 0x6e, 0x27, 0xb8, 0xbe, 0x6a, 0x3d, 0x5c, 0xbc,
  0xb0, 0x52, 0x36, 0xbe, 0x73, 0xad, 0x76, 0xbc, 0x26, 0x21, 0xb9, 0x3d,
  0xa7, 0x83, 0x80, 0x3e, 0xa6, 0x3b, 0x02, 0x3e, 0xfa, 0xc7, 0x89, 0x3e,
  0x4d, 0xf2, 0x0d, 0x3e, 0xb6, 0xdd, 0x79, 0x3e, 0x71, 0x45, 0x35, 0x3d,
  0x90, 0x1d, 0x11, 0x3e, 0x02, 0xa0, 0xc5, 0x3c, 0x93, 0x5b, 0xa0, 0xba,
  0x03, 0x8f, 0xde, 0x3e, 0xa2, 0x46, 0x08, 0xbe, 0xb8, 0xae, 0x41, 0xbd,
  0x58, 0x18, 0xa2, 0xbe, 0x68, 0x81, 0xf5, 0xbd, 0x0d, 0xba, 0xe4, 0x3d,
  0x91, 0x09, 0x2b, 0xbc, 0x44, 0xa1, 0xb0, 0xbd, 0xd1, 0xbe, 0x75, 0x3e,
  0x5a, 0x2c, 0x44, 0xbe, 0x5b, 0xc8, 0x80, 0xbc, 0x70, 0x6b, 0xa5, 0xbd,
  0xb8, 0x63, 0xe1, 0x3b, 0x02, 0x80, 0x16, 0xbe, 0xa6, 0xbf, 0xf7, 0xbd,
  0xd1, 0x46, 0xf5, 0x3e, 0x1d, 0x34, 0x4a, 0xbe, 0xa8, 0xb5, 0x77, 0xbe,
  0xa9, 0x7a, 0xf2, 0xbd, 0x75, 0xe2, 0x7d, 0x3d, 0xa1, 0x83, 0x5e, 0x3d,
  0x24, 0x15, 0xc0, 0x3d, 0x61, 0xc8, 0xab, 0x3d, 0x71, 0xa1, 0x83, 0x3d,
  0x90, 0x77, 0x89, 0xbd, 0xd7, 0x20, 0x98, 0xbd, 0x9e, 0x5c, 0x45, 0x3d,
  0x9d, 0xda, 0xdf, 0x3d, 0xd0, 0x3a, 0x18, 0xbd, 0xed, 0x01, 0x59, 0xbe,
  0x72, 0xd7, 0x95, 0xbe, 0x8a, 0x9e, 0x98, 0xbe, 0xce, 0x90, 0x1d, 0x3d,
  0xd2, 0x98, 0x4a, 0xbd, 0x21, 0x8c, 0x16, 0xbd, 0xbc, 0x2e, 0x2b, 0x3e,
  0x97, 0xf9, 0x37, 0x3e, 0x06, 0xa0, 0x14, 0x3e, 0x42, 0xd0, 0x59, 0x3e,
  0x20, 0x04, 0xe8, 0x3d, 0x0f, 0x8d, 0x48, 0x3e, 0x3d, 0x35, 0x95, 0x3d,
  0x3d, 0x9f, 0x51, 0x3e, 0x66, 0x25, 0x95, 0x3e, 0xf3, 0xe8, 0x60, 0xbe,
  0xd0, 0x0a, 0xc0, 0xbe, 0x32, 0x79, 0x55, 0xbe, 0xf8, 0x6c, 0x06, 0x3d,
  0x3d, 0x92, 0x95, 0x3c, 0xf0, 0xfc, 0x5b, 0x3d, 0xa7, 0x37, 0xe0, 0xbb,
  0xc9, 0xa9, 0x22, 0x3c, 0x0b, 0x4b, 0xef, 0x3d, 0x92, 0xe3, 0x95, 0x3d,
  0x79, 0x91, 0x60, 0x3e, 0x8f, 0xb2, 0xa8, 0x3e, 0xfb, 0xe3, 0x3f, 0xbd,
  0xc4, 0x64, 0xf1, 0x3d, 0xa7, 0xa4, 0x73, 0x3c, 0x00, 0x00, 0x00, 0x00,
  0x82, 0xe6, 0xff, 0xff, 0x04, 0x00, 0x00, 0x00, 0x10, 0x00, 0x00, 0x00,
  0x00, 0x00, 0x00, 0x00, 0x03, 0x00, 0x00, 0x00, 0x01, 0x00, 0x00, 0x00,
  0x02, 0x00, 0x00, 0x00, 0x00, 0x00, 0x00, 0x00, 0xa2, 0xe6, 0xff, 0xff,
  0x04, 0x00, 0x00, 0x00, 0x10, 0x00, 0x00, 0x00, 0x00, 0x00, 0x00, 0x00,
  0x02, 0x00, 0x00, 0x00, 0x03, 0x00, 0x00, 0x00, 0x01, 0x00, 0x00, 0x00,
  0x00, 0x00, 0x00, 0x00, 0xc2, 0xe6, 0xff, 0xff, 0x04, 0x00, 0x00, 0x00,
  0x08, 0x00, 0x00, 0x00, 0x01, 0x00, 0x00, 0x00, 0xff, 0xff, 0xff, 0xff,
  0x00, 0x00, 0x00, 0x00, 0x00, 0x00, 0x00, 0x00, 0x00, 0x00, 0x00, 0x00,
  0xe2, 0xe6, 0xff, 0xff, 0x04, 0x00, 0x00, 0x00, 0x20, 0x00, 0x00, 0x00,
  0x00, 0x00, 0x00, 0x00, 0x00, 0x00, 0x00, 0x00, 0x00, 0x00, 0x00, 0x00,
  0x00, 0x00, 0x00, 0x00, 0x00, 0x00, 0x00, 0x00, 0x00, 0x00, 0x00, 0x00,
  0x27, 0x00, 0x00, 0x00, 0x28, 0x00, 0x00, 0x00, 0x00, 0x00, 0x00, 0x00,
  0x12, 0xe7, 0xff, 0xff, 0x04, 0x00, 0x00, 0x00, 0x20, 0x00, 0x00, 0x00,
  0x00, 0x00, 0x00, 0x00, 0x00, 0x00, 0x00, 0x00, 0x00, 0x00, 0x00, 0x00,
  0x00, 0x00, 0x00, 0x00, 0x00, 0x00, 0x00, 0x00, 0x00, 0x00, 0x00, 0x00,
  0x00, 0x00, 0x00, 0x00, 0x00, 0x00, 0x00, 0x00, 0x00, 0x00, 0x00, 0x00,
  0x42, 0xe7, 0xff, 0xff, 0x04, 0x00, 0x00, 0x00, 0x20, 0x00, 0x00, 0x00,
  0x00, 0x00, 0x00, 0x00, 0x00, 0x00, 0x00, 0x00, 0x00, 0x00, 0x00, 0x00,
  0x00, 0x00, 0x00, 0x00, 0x00, 0x00, 0x00, 0x00, 0x00, 0x00, 0x00, 0x00,
  0x07, 0x00, 0x00, 0x00, 0x08, 0x00, 0x00, 0x00, 0x00, 0x00, 0x00, 0x00,
  0x72, 0xe7, 0xff, 0xff, 0x04, 0x00, 0x00, 0x00, 0x08, 0x00, 0x00, 0x00,
  0xd4, 0xbb, 0xa8, 0x3c, 0xef, 0xec, 0x2a, 0x3d, 0x00, 0x00, 0x00, 0x00,
  0x00, 0x00, 0x00, 0x00, 0x00, 0x00, 0x00, 0x00, 0x92, 0xe7, 0xff, 0xff,
  0x04, 0x00, 0x00, 0x00, 0x00, 0x0a, 0x00, 0x00, 0x93, 0x0f, 0x83, 0xc1,
  0x42, 0xd8, 0xee, 0xc1, 0x2f, 0xbd, 0xfb, 0xc1, 0x97, 0x71, 0xf8, 0xc1,
  0xa9, 0xfa, 0xf5, 0xc1, 0x83, 0x2f, 0x15, 0xc2, 0x12, 0x52, 0x07, 0xc2,
  0xa7, 0xd4, 0x28, 0xc2, 0x2a, 0xb2, 0x38, 0xc2, 0x0b, 0xdc, 0x3f, 0xc2,
  0x8c, 0x18, 0x6b, 0xc2, 0xd2, 0x0d, 0x43, 0xc2, 0x9d, 0xfb, 0x61, 0xc2,
  0x88, 0x5c, 0x68, 0xc2, 0xf3, 0x64, 0x3a, 0xc2, 0x68, 0xf6, 0x11, 0xc2,
  0xb3, 0xbc, 0x28, 0xc2, 0xd2, 0xd2, 0x18, 0xc2, 0xc8, 0x19, 0xf1, 0xc1,
  0x02, 0x62, 0xfb, 0xc1, 0x04, 0xb9, 0xe4, 0xc1, 0x8e, 0xb9, 0xda, 0xc1,
  0x73, 0xa0, 0x8e, 0xc1, 0x52, 0xf0, 0x12, 0xc1, 0x94, 0x5d, 0x4d, 0xc1,
  0x45, 0x6c, 0x6f, 0xc1, 0xff, 0x0b, 0x0c, 0xc1, 0x64, 0x86, 0xc6, 0xc0,
  0x0b, 0xf4, 0x58, 0x3f, 0x76, 0xfa, 0x29, 0x41, 0xeb, 0x7a, 0x71, 0x41,
  0x2e, 0xef, 0x32, 0x41, 0xe2, 0x60, 0x21, 0x41, 0xd1, 0x25, 0x98, 0x41,
  0x40, 0x68, 0xb2, 0x41, 0x03, 0x39, 0xd9, 0x41, 0xde, 0x40, 0xd8, 0x41,
  0xb5, 0x07, 0x11, 0x42, 0x5d, 0x2f, 0xef, 0x41, 0x02, 0x16, 0x14, 0x42,
  0xe6, 0x00, 0xfd, 0x41, 0x46, 0x41, 0x26, 0x42, 0x32, 0x60, 0x4c, 0x42,
  0xbd, 0xb9, 0x4a, 0x42, 0x47, 0x40, 0x68, 0x42, 0xfd, 0x6e, 0x55, 0x42,
  0xbc, 0x19, 0x43, 0x42, 0x01, 0x0f, 0x5c, 0x42, 0x1f, 0x26, 0x57, 0x42,
  0x59, 0x9b, 0x1c, 0x42, 0xa2, 0xcf, 0x12, 0x42, 0x2f, 0x14, 0x34, 0x42,
  0xb5, 0x00, 0x1a, 0x42, 0xc8, 0x89, 0x05, 0x42, 0x5b, 0x78, 0xbe, 0x41,
  0xb1, 0xeb, 0xce, 0x41, 0x79, 0x34, 0x92, 0x41, 0x93, 0x1d, 0xd7, 0x40,
  0x79, 0x95, 0xcf, 0x40, 0xcd, 0xf2, 0xda, 0x40, 0x59, 0xef, 0x77, 0xc0,
  0xe0, 0x42, 0xdb, 0xbe, 0x78, 0x98, 0x1f, 0xc1, 0x1d, 0xf9, 0x2c, 0xc1,
  0x02, 0x85, 0x01, 0xc0, 0xf0, 0xe1, 0x22, 0xc1, 0xa3, 0x8a, 0x57, 0xc0,
  0x4c, 0x7f, 0xcf, 0xc0, 0xd8, 0x9b, 0x39, 0xc1, 0xe6, 0x90, 0xd4, 0xc0,
  0x08, 0x65, 0x46, 0x40, 0x8c, 0x9f, 0x4e, 0xc0, 0xdf, 0xa5, 0xef, 0xc0,
  0xbc, 0x88, 0x35, 0xc1, 0x0d, 0x5b, 0x25, 0xc1, 0x1a, 0x83, 0x84, 0xc1,
  0x53, 0xf6, 0xca, 0xc0, 0x90, 0x1a, 0x3c, 0xc1, 0x97, 0x12, 0xc3, 0xc0,
  0xe6, 0xa4, 0xfa, 0xc0, 0xf8, 0xcd, 0x25, 0x41, 0x4b, 0xf6, 0x1c, 0x41,
  0x3c, 0x40, 0xd0, 0x40, 0xe4, 0x5e, 0x00, 0x41, 0x2c, 0x1f, 0xc6, 0x40,
  0x1e, 0x1b, 0x1f, 0x41, 0x0b, 0x8f, 0xb7, 0x40, 0x6a, 0x2f, 0xd9, 0x40,
  0x41, 0x54, 0x1c, 0x41, 0x63, 0x73, 0x0f, 0x41, 0x73, 0x53, 0xe3, 0x40,
  0x2b, 0xfb, 0xa6, 0x40, 0x5a, 0xf7, 0x5c, 0x40, 0x00, 0x28, 0xde, 0x40,
  0x33, 0xe9, 0xc7, 0x40, 0xaa, 0xe9, 0x84, 0xbe, 0x4d, 0x70, 0x1e, 0x3f,
  0xfa, 0xd8, 0x28, 0xbf, 0x02, 0x79, 0x3d, 0x40, 0x8a, 0x2d, 0x3a, 0x40,
  0xaa, 0xaf, 0xbb, 0x3f, 0xb5, 0xb9, 0x15, 0x40, 0x95, 0xa6, 0x0e, 0x40,
  0x75, 0xe1, 0x69, 0xc0, 0x97, 0x4c, 0x06, 0xc0, 0x7d, 0xf6, 0xf6, 0xbf,
  0x0b, 0xfd, 0xff, 0x3f, 0x58, 0xf4, 0x2e, 0x40, 0x85, 0xa8, 0x84, 0x3f,
  0xec, 0x48, 0xdf, 0xbe, 0xe5, 0x88, 0xc4, 0x3e, 0xf6, 0xba, 0xb0, 0x40,
  0x4c, 0x1e, 0x58, 0x40, 0x53, 0x80, 0xae, 0x40, 0xf7, 0xb1, 0x93, 0x40,
  0xf9, 0x71, 0xb7, 0x40, 0x61, 0x7c, 0xed, 0x40, 0xe5, 0xb2, 0x5f, 0x40,
  0x57, 0x80, 0xd6, 0x40, 0xad, 0x29, 0xbf, 0x40, 0xa4, 0xf1, 0xb0, 0x40,
  0x46, 0x22, 0x4e, 0x40, 0x1f, 0x99, 0xe5, 0x40, 0xe2, 0x49, 0x02, 0x40,
  0xef, 0x54, 0x86, 0x40, 0x76, 0x99, 0x80, 0x40, 0x3a, 0x71, 0x96, 0x40,
  0x0b, 0x91, 0xe1, 0x3f, 0xd9, 0x98, 0xea, 0x40, 0x7a, 0x5a, 0xfb, 0x40,
  0x40, 0xcb, 0x8a, 0x40, 0x21, 0xc6, 0xc9, 0x40, 0x67, 0x67, 0x58, 0x40,
  0xa5, 0x70, 0x75, 0x40, 0x1a, 0x1d, 0xf3, 0x40, 0x26, 0xf4, 0x62, 0x40,
  0x32, 0x49, 0x8f, 0x40, 0x21, 0x0d, 0x48, 0x40, 0x5e, 0x24, 0xb4, 0x40,
  0x24, 0x2b, 0xc1, 0x40, 0x2a, 0x02, 0x6f, 0x40, 0x3b, 0x99, 0xc5, 0x40,
  0x2d, 0x94, 0xf8, 0x40, 0x6d, 0x46, 0x83, 0x40, 0xc7, 0x02, 0x9f, 0x40,
  0xbd, 0xbc, 0x9a, 0x40, 0xe2, 0xc6, 0xab, 0x40, 0x6a, 0x35, 0x04, 0x40,
  0x63, 0x07, 0x1b, 0x40, 0xfb, 0x9d, 0x85, 0x40, 0x12, 0x5c, 0xe7, 0x3f,
  0x70, 0x34, 0x8e, 0x40, 0xcb, 0xac, 0x93, 0x40, 0x27, 0x8d, 0xc3, 0x40,
  0xb4, 0x1b, 0xbe, 0x40, 0xb9, 0x52, 0x14, 0x40, 0x00, 0xfe, 0x5d, 0x40,
  0x6a, 0x5e, 0xed, 0x3f, 0xa7, 0x1b, 0x6b, 0x40, 0x25, 0x0b, 0x02, 0x40,
  0x5c, 0x70, 0xa8, 0x41, 0x25, 0x69, 0xc5, 0x41, 0x73, 0x51, 0xe0, 0x41,
  0xff, 0xfc, 0xcc, 0x41, 0x24, 0xb1, 0xbb, 0x41, 0x4a, 0x4e, 0xb8, 0x41,
  0x83, 0xd3, 0xb1, 0x41, 0xe4, 0x28, 0x94, 0x41, 0x44, 0x38, 0xd1, 0x41,
  0xc0, 0x10, 0xcc, 0x41, 0xda, 0x95, 0xaa, 0x41, 0xdd, 0xbd, 0x99, 0x41,
  0x36, 0x0e, 0x99, 0x41, 0x91, 0x4b, 0xa3, 0x41, 0x22, 0x1b, 0x9e, 0x41,
  0x33, 0x9a, 0x9d, 0x41, 0x20, 0xe4, 0x7b, 0x41, 0x8e, 0xbb, 0x1f, 0x41,
  0xfa, 0x45, 0x76, 0x41, 0xcd, 0xf5, 0x28, 0x41, 0x2c, 0x59, 0x10, 0x41,
  0x0b, 0xd4, 0x1a, 0x41, 0x7a, 0x91, 0xe9, 0x40, 0x24, 0x95, 0x3e, 0x41,
  0xc1, 0xf7, 0x20, 0x41, 0x38, 0xe3, 0x21, 0x41, 0x01, 0x49, 0x6e, 0x41,
  0xa7, 0xd2, 0x49, 0x41, 0xe7, 0x6d, 0x52, 0x41, 0xc9, 0xae, 0x27, 0x41,
  0xfd, 0x38, 0xfc, 0x40, 0x27, 0x42, 0x32, 0x41, 0x26, 0x45, 0x3e, 0x41,
  0x19, 0xe2, 0xfc, 0x3f, 0xcb, 0x5d, 0x4f, 0x40, 0xfe, 0x3b, 0xce, 0x40,
  0x88, 0x6d, 0x21, 0x40, 0xa6, 0x28, 0x9a, 0xbf, 0xd0, 0x8e, 0x67, 0xbf,
  0x7e, 0xfb, 0xd3, 0x3f, 0x3b, 0x7d, 0x25, 0xbf, 0x37, 0x4c, 0xae, 0xc0,
  0xa9, 0xf4, 0xed, 0xc0, 0x50, 0x5a, 0x1a, 0xc1, 0x2c, 0x12, 0x7d, 0xc0,
  0x5d, 0x00, 0xe9, 0xc0, 0xd8, 0xe2, 0x87, 0xc0, 0x3b, 0xb1, 0xe4, 0xc0,
  0xa1, 0x86, 0xc0, 0xc0, 0xb7, 0xe0, 0x0e, 0xc1, 0x55, 0xc6, 0x8d, 0xc0,
  0x3f, 0x3f, 0x21, 0xc1, 0x4e, 0x0b, 0x20, 0xc1, 0xb4, 0x17, 0xfe, 0xc0,
  0x60, 0xe7, 0x64, 0xc1, 0x2b, 0x4f, 0x4d, 0xc1, 0x88, 0xcc, 0x78, 0xc1,
  0xc0, 0x58, 0x17, 0xc1, 0xb2, 0x23, 0x3b, 0xc1, 0xc5, 0xe9, 0x55, 0xc1,
  0xae, 0xb7, 0xac, 0xc0, 0xfd, 0x31, 0xd4, 0xc0, 0xb9, 0xb0, 0xd7, 0xc0,
  0xf4, 0x44, 0xc9, 0xc0, 0xcf, 0x89, 0xa4, 0xc0, 0xaa, 0x09, 0x31, 0xc1,
  0xa3, 0xcc, 0x13, 0xc1, 0xd7, 0x6c, 0xb1, 0xc0, 0xc3, 0xa3, 0x00, 0xc1,
  0x50, 0x16, 0x5e, 0xc0, 0x8f, 0x93, 0xc2, 0xc0, 0xc7, 0xad, 0x08, 0xc0,
  0x16, 0xe2, 0xa7, 0xc0, 0x0d, 0x25, 0xa6, 0xbe, 0x2d, 0xfb, 0x19, 0x3f,
  0x8a, 0x21, 0x04, 0x40, 0xf0, 0xe5, 0x8f, 0x40, 0xd2, 0xd5, 0x26, 0x41,
  0xf4, 0xcf, 0xb3, 0x40, 0x83, 0xd5, 0xad, 0x40, 0x72, 0xf9, 0x9a, 0x40,
  0x2d, 0x36, 0x74, 0x3f, 0x44, 0x86, 0x8e, 0x40, 0x91, 0x0a, 0xae, 0x40,
  0xb5, 0xf2, 0xa9, 0x3f, 0x58, 0xf3, 0x85, 0x40, 0xb4, 0x33, 0xe0, 0x40,
  0x96, 0x92, 0x6e, 0x40, 0x8d, 0x8b, 0x05, 0x41, 0x29, 0xd5, 0x01, 0x41,
  0xa2, 0x3d, 0xfa, 0x40, 0x91, 0x42, 0x1b, 0x40, 0x70, 0x00, 0xb2, 0x40,
  0x4c, 0xd4, 0xcb, 0x40, 0x95, 0x37, 0x08, 0x41, 0x48, 0x35, 0xf7, 0x40,
  0x1d, 0xf4, 0x06, 0x41, 0x91, 0x8b, 0xdf, 0x40, 0x37, 0x34, 0x39, 0x40,
  0x9b, 0xe3, 0xd1, 0x40, 0x63, 0x3b, 0x12, 0x3f, 0xf7, 0x67, 0x17, 0x3f,
  0xad, 0xbc, 0x77, 0x40, 0x8e, 0xb4, 0xf0, 0x3f, 0x5f, 0x21, 0x1f, 0xbe,
  0xb0, 0x48, 0x9e, 0xbe, 0x99, 0x72, 0x8d, 0x3f, 0x1a, 0x20, 0xbe, 0x3c,
  0x3a, 0xe6, 0x7c, 0xc0, 0xa5, 0xb5, 0x9b, 0xbf, 0xfb, 0xc4, 0x15, 0x3e,
  0xf4, 0x7d, 0xa5, 0x3e, 0x9f, 0x7d, 0xb0, 0xc0, 0x19, 0x10, 0xaa, 0x3e,
  0x49, 0x32, 0xd8, 0xbf, 0xf1, 0x17, 0xb2, 0xbf, 0xc3, 0xc4, 0x23, 0xc0,
  0x8b, 0x14, 0x35, 0xbf, 0x4a, 0x92, 0xdb, 0xc0, 0xa9, 0x8c, 0x0d, 0xc1,
  0xeb, 0xda, 0x69, 0xc0, 0x32, 0x1f, 0x8e, 0xc0, 0xf1, 0x36, 0x26, 0xc0,
  0x6b, 0xb9, 0x8b, 0xc0, 0x2e, 0x88, 0xb7, 0xbf, 0xef, 0x7a, 0x7f, 0xc0,
  0xc7, 0x0f, 0x9f, 0xc0, 0xdc, 0x78, 0x5c, 0xc0, 0x5d, 0xc7, 0xea, 0xc0,
  0x6b, 0x98, 0xbc, 0xc0, 0x40, 0x35, 0x1c, 0xc0, 0xd3, 0xa6, 0xc9, 0xc0,
  0xbb, 0x90, 0x9e, 0xbf, 0x2e, 0xb5, 0xee, 0xbf, 0x7d, 0x25, 0x58, 0xc0,
  0x7b, 0xff, 0x3b, 0xc0, 0xbf, 0x81, 0x30, 0xc0, 0xcb, 0x7b, 0x16, 0x3d,
  0xf7, 0x19, 0xa4, 0x3f, 0x97, 0xa5, 0x91, 0x3f, 0x50, 0x11, 0x99, 0xbf,
  0xb5, 0xe2, 0x26, 0x40, 0xaa, 0xd2, 0xa0, 0xbf, 0xd6, 0x2c, 0x14, 0x40,
  0xf4, 0x5a, 0x7f, 0xc0, 0x85, 0xda, 0x25, 0xbf, 0xa2, 0x29, 0x19, 0xc0,
  0xed, 0xdc, 0xed, 0xc0, 0x4e, 0x8b, 0xe9, 0xbf, 0x7d, 0x4d, 0x10, 0xc1,
  0xb7, 0x2f, 0x81, 0xc0, 0x78, 0xd7, 0x06, 0xc1, 0x8f, 0x99, 0xba, 0xc0,
  0xde, 0x11, 0x39, 0xc1, 0x8f, 0x22, 0xea, 0xc0, 0x2c, 0x55, 0x12, 0xc1,
  0x1f, 0x75, 0x58, 0xc1, 0x47, 0x62, 0x15, 0xc1, 0xca, 0x71, 0x48, 0xc1,
  0x42, 0xe2, 0x7e, 0xc1, 0xbc, 0x82, 0xa4, 0x3f, 0x84, 0x49, 0x1a, 0x40,
  0x89, 0x5d, 0x96, 0x3f, 0x30, 0x1b, 0xf2, 0x3f, 0x04, 0x07, 0xf4, 0x3f,
  0x6b, 0x35, 0xb5, 0x3f, 0x65, 0x27, 0x73, 0x3f, 0x58, 0xba, 0x00, 0x40,
  0x1b, 0xd7, 0x25, 0x3f, 0xcb, 0x97, 0xb2, 0x3f, 0x1b, 0x5b, 0x3b, 0x3f,
  0x6c, 0x7d, 0x13, 0x3f, 0x37, 0xdb, 0xb9, 0x3f, 0x3b, 0xf8, 0x84, 0xbd,
  0xaf, 0xb3, 0xa9, 0x3f, 0x75, 0x6a, 0x02, 0xbf, 0xa0, 0x6c, 0x8d, 0x3e,
  0xeb, 0xa4, 0xdc, 0x3e, 0x00, 0x51, 0x0f, 0x3f, 0xc8, 0xc5, 0x7e, 0xbe,
  0x01, 0x9c, 0x9d, 0xbe, 0xf2, 0x37, 0x29, 0x3f, 0x27, 0x5d, 0xb7, 0x3e,
  0x0a, 0x5d, 0x24, 0x3f, 0xe7, 0xd9, 0x82, 0x3d, 0x12, 0x52, 0xde, 0x3e,
  0xe0, 0xe1, 0x6c, 0xbe, 0xa2, 0xd7, 0x17, 0xbf, 0x9c, 0xf8, 0x64, 0x3f,
  0x6a, 0xd1, 0xbc, 0x3e, 0x71, 0xbb, 0x20, 0x3f, 0xa4, 0x75, 0xd2, 0xbe,
  0xfb, 0x31, 0xca, 0x3f, 0x8e, 0x7b, 0xe5, 0x3e, 0x2f, 0xa5, 0x9a, 0x3f,
  0x93, 0x48, 0x0d, 0x40, 0x1a, 0x9c, 0x24, 0x40, 0x71, 0xde, 0xa7, 0x3f,
  0x02, 0x83, 0xa2, 0x3f, 0x75, 0xda, 0xde, 0x3f, 0x80, 0x1d, 0x2c, 0x40,
  0x26, 0x80, 0x26, 0x40, 0x9c, 0xd6, 0x64, 0x40, 0x31, 0x6a, 0x4a, 0x40,
  0x9d, 0x68, 0x14, 0x40, 0x53, 0xbc, 0x57, 0x40, 0x71, 0xcb, 0x5e, 0x40,
  0x0f, 0x90, 0x60, 0x40, 0xa7, 0xf5, 0x57, 0x40, 0xc4, 0xbb, 0x11, 0x40,
  0xc7, 0x72, 0x43, 0x40, 0x26, 0x5b, 0xb9, 0x3f, 0x95, 0x57, 0xe5, 0x3f,
  0x89, 0x5c, 0xb7, 0x3f, 0x93, 0x7f, 0xef, 0x3f, 0x15, 0xe8, 0x0f, 0x40,
  0xb0, 0x12, 0x0f, 0x40, 0xc1, 0x0a, 0x4b, 0x40, 0xa8, 0x76, 0xcc, 0x3f,
  0xa6, 0xc6, 0xbf, 0x3f, 0x3e, 0x54, 0x0a, 0x40, 0xeb, 0xe3, 0x94, 0x3f,
  0x35, 0x38, 0x62, 0x3f, 0x57, 0xe5, 0x0d, 0x40, 0xeb, 0xc8, 0x0b, 0x3f,
  0x00, 0xb3, 0x37, 0x3f, 0x99, 0xd7, 0x93, 0x3e, 0xbb, 0xd1, 0xc8, 0x3f,
  0xea, 0x1e, 0x07, 0x3f, 0xc6, 0x79, 0x0b, 0x3e, 0x7c, 0x8a, 0x81, 0xbe,
  0xae, 0x1d, 0x03, 0xbf, 0x21, 0x9f, 0x7a, 0xbe, 0xb5, 0x85, 0x9c, 0x3e,
  0x3f, 0xb4, 0x45, 0xbf, 0x55, 0x8c, 0x4d, 0x3e, 0x87, 0x8e, 0xa0, 0x3d,
  0xf9, 0x3a, 0x84, 0xbf, 0xc5, 0x9b, 0x3d, 0xbf, 0xd4, 0x6f, 0xae, 0xbf,
  0x29, 0x84, 0x3e, 0xc1, 0xfa, 0x43, 0x19, 0xc1, 0x1d, 0xbc, 0x1c, 0xc1,
  0xde, 0x7c, 0x26, 0xc1, 0x9f, 0x5a, 0x55, 0xc1, 0xb8, 0xf3, 0xaf, 0xc1,
  0x0c, 0x7a, 0x6a, 0xc1, 0xbf, 0xfd, 0x9f, 0xc1, 0x95, 0x90, 0x64, 0xc1,
  0x67, 0x7a, 0x44, 0xc1, 0xa4, 0x9e, 0xa3, 0xc0, 0x2e, 0xcb, 0x24, 0xc1,
  0x42, 0x42, 0x13, 0xc1, 0x6c, 0xb5, 0x49, 0xc1, 0x9e, 0x5d, 0x98, 0xc0,
  0x67, 0xa8, 0x95, 0xc0, 0xa0, 0x86, 0x91, 0xc0, 0xcb, 0xda, 0x3f, 0xc0,
  0x79, 0x76, 0x1f, 0xc0, 0xdf, 0xe6, 0xcc, 0xc0, 0xa9, 0x2c, 0x16, 0xc1,
  0x06, 0x71, 0xa4, 0xc1, 0xa3, 0xd4, 0x79, 0xc1, 0x5b, 0x29, 0x89, 0xc1,
  0xe9, 0x8d, 0xb6, 0xc1, 0x74, 0x9c, 0xb6, 0xc1, 0xae, 0x3d, 0xad, 0xc1,
  0xbb, 0xdf, 0x9a, 0xc1, 0x4f, 0xfa, 0xbc, 0xc1, 0x8a, 0x9e, 0xb7, 0xc1,
  0x51, 0xcd, 0xb0, 0xc1, 0x29, 0x16, 0x89, 0xc1, 0x33, 0xe3, 0xac, 0xc1,
  0x34, 0xdd, 0xa3, 0xc1, 0xf2, 0xf6, 0xae, 0xc1, 0x8c, 0xa9, 0xa7, 0xc1,
  0x36, 0x8e, 0x25, 0xc1, 0xfe, 0x1f, 0x6f, 0xc1, 0x54, 0xd7, 0x28, 0xc1,
  0x2c, 0x8f, 0x6f, 0xc1, 0x26, 0xb3, 0x6a, 0xc1, 0x5b, 0xbd, 0x96, 0xc1,
  0xc6, 0x18, 0x5b, 0xc1, 0x3b, 0xbc, 0x6d, 0xc1, 0xac, 0x9e, 0xc6, 0xc1,
  0x2e, 0xa8, 0xa0, 0xc1, 0xc1, 0x7c, 0xc8, 0xc1, 0x18, 0x7d, 0xa8, 0xc1,
  0x87, 0xda, 0xb9, 0xc1, 0x92, 0x55, 0xe6, 0xc1, 0x5b, 0xad, 0xe6, 0xc1,
  0x0a, 0xa7, 0xf6, 0xc1, 0x5f, 0x8e, 0xb0, 0xc1, 0x75, 0x6f, 0xbc, 0xc1,
  0xdd, 0xf3, 0xc1, 0xc1, 0x13, 0x0b, 0xad, 0xc1, 0xeb, 0xc6, 0x05, 0xc2,
  0xea, 0x44, 0x29, 0xc2, 0xa6, 0x7d, 0x25, 0xc2, 0x56, 0xaa, 0x35, 0xc2,
  0xa0, 0xac, 0xeb, 0xc1, 0x39, 0x71, 0xc4, 0xc1, 0x26, 0x39, 0x5d, 0xc1,
  0xef, 0x4f, 0x56, 0xc1, 0xe9, 0xd0, 0x29, 0xc1, 0x85, 0x99, 0x81, 0xc1,
  0x5d, 0xa3, 0x42, 0xc1, 0x10, 0x6f, 0x93, 0xc1, 0x41, 0x0a, 0x18, 0xc1,
  0xa7, 0x6c, 0x24, 0xc1, 0x8e, 0x0b, 0x32, 0xc1, 0x18, 0x96, 0x0c, 0xc1,
  0x06, 0xb6, 0xc9, 0xc1, 0x70, 0x7b, 0xee, 0xc1, 0xd6, 0x4f, 0x14, 0xc2,
  0x90, 0x37, 0x31, 0xc2, 0xef, 0x48, 0x53, 0xc2, 0x22, 0x53, 0x77, 0xc2,
  0x2d, 0xc0, 0x99, 0xc2, 0x95, 0x7c, 0xa5, 0xc2, 0x72, 0xa3, 0x4e, 0x41,
  0x93, 0xea, 0x56, 0x41, 0x1e, 0x77, 0x62, 0x41, 0xd9, 0xd8, 0x7e, 0x41,
  0x8b, 0x5c, 0xcd, 0x41, 0xd3, 0xdc, 0xae, 0x41, 0x03, 0x7f, 0xbd, 0x41,
  0x56, 0xf9, 0xd0, 0x41, 0xa1, 0x50, 0xf5, 0x41, 0x1c, 0x65, 0xf8, 0x41,
  0x50, 0x0d, 0x18, 0x42, 0x0d, 0x0d, 0x16, 0x42, 0xd2, 0xd0, 0x10, 0x42,
  0xe9, 0x13, 0x1d, 0x42, 0xdd, 0x6a, 0xfd, 0x41, 0x93, 0xee, 0x09, 0x42,
  0x37, 0xe5, 0x00, 0x42, 0x5b, 0x96, 0xf2, 0x41, 0xe2, 0xe5, 0x00, 0x42,
  0x82, 0x5f, 0x14, 0x42, 0xac, 0x38, 0x0a, 0x42, 0x87, 0x39, 0xb9, 0x41,
  0x32, 0x68, 0xcc, 0x41, 0x50, 0xb1, 0xdd, 0x41, 0x56, 0x92, 0xc2, 0x41,
  0xa6, 0xba, 0xd5, 0x41, 0x23, 0x3c, 0xdf, 0x41, 0x22, 0xc0, 0xae, 0x41,
  0xc1, 0x9e, 0xaa, 0x41, 0xe6, 0x64, 0x8f, 0x41, 0x1c, 0x84, 0xca, 0x41,
  0xc5, 0xfd, 0xa5, 0x41, 0x0f, 0xd1, 0x96, 0x41, 0x94, 0x97, 0x74, 0x41,
  0x29, 0x34, 0x6f, 0x41, 0xc2, 0xc0, 0x46, 0x41, 0x42, 0xa9, 0x22, 0x41,
  0x07, 0x8b, 0x0f, 0x41, 0x7a, 0x51, 0x09, 0x41, 0xda, 0x16, 0x69, 0x40,
  0xb5, 0xef, 0x32, 0xc0, 0x40, 0x67, 0xde, 0xc0, 0x3d, 0x8c, 0x90, 0xc1,
  0xa4, 0x62, 0x6e, 0xc1, 0x30, 0x72, 0xb5, 0xc1, 0x13, 0xee, 0xab, 0xc1,
  0x7e, 0x37, 0xc2, 0xc1, 0x61, 0x6d, 0xa2, 0xc1, 0xf4, 0xc0, 0xf4, 0xc1,
  0xbb, 0xd4, 0x10, 0xc2, 0x4f, 0x4e, 0x03, 0xc2, 0x5d, 0x12, 0xff, 0xc1,
  0x5a, 0x2d, 0x15, 0xc2, 0xa6, 0x6c, 0x02, 0xc2, 0xde, 0x2d, 0x06, 0xc2,
  0xcd, 0xaa, 0xd7, 0xc1, 0xbb, 0xdd, 0xd3, 0xc1, 0x89, 0xbb, 0x01, 0xc2,
  0x70, 0x83, 0xd2, 0xc1, 0x1d, 0x57, 0xe4, 0xc1, 0x1f, 0xd1, 0xd1, 0xc1,
  0x8c, 0xd5, 0xbd, 0xc1, 0x01, 0x1b, 0xd5, 0xc1, 0xee, 0xcd, 0xc5, 0xc1,
  0xde, 0x8e, 0xc3, 0xc1, 0x4a, 0x3f, 0xe6, 0xc1, 0xa1, 0xe8, 0xe4, 0xc1,
  0xbf, 0x0d, 0xcd, 0xc1, 0x69, 0x8e, 0xf3, 0xc1, 0x8c, 0x0e, 0xc2, 0xc1,
  0xbb, 0xde, 0xc1, 0xc1, 0xad, 0xeb, 0xd1, 0xc1, 0xab, 0x90, 0xa2, 0xc1,
  0x1e, 0x3a, 0xdc, 0xc1, 0xd8, 0x7f, 0xbd, 0xc1, 0x37, 0xd1, 0xc7, 0xc1,
  0x89, 0x7c, 0xd0, 0xc1, 0x4a, 0xb7, 0xcc, 0xc1, 0x2a, 0x8e, 0xf3, 0xc1,
  0xa1, 0xdd, 0xba, 0xc1, 0xd3, 0x62, 0xf3, 0xc1, 0xdf, 0x91, 0xc7, 0xc1,
  0xd9, 0x6e, 0xe2, 0xc1, 0xba, 0xa6, 0xa5, 0xc1, 0x8f, 0x20, 0xba, 0xc1,
  0xe1, 0x1b, 0xa6, 0xc1, 0x97, 0x0f, 0x8c, 0xc1, 0x5b, 0x5a, 0x82, 0xc1,
  0xfa, 0x12, 0x21, 0xc1, 0x25, 0x79, 0xe5, 0xc0, 0x7e, 0x5a, 0x7d, 0xc1,
  0x13, 0x7c, 0xd6, 0xc0, 0xf6, 0xe9, 0x39, 0xc1, 0x0e, 0x4e, 0x37, 0xc1,
  0x13, 0xda, 0x48, 0xc1, 0xf0, 0xfe, 0xd0, 0xc0, 0xe4, 0xa1, 0xb8, 0xc0,
  0x8f, 0xd0, 0x02, 0xc1, 0x0b, 0x5c, 0xc8, 0xc0, 0xcd, 0x31, 0xe0, 0xc0,
  0xa0, 0x1b, 0xd5, 0xc0, 0x2c, 0x42, 0x28, 0xc1, 0x14, 0x31, 0x2e, 0xc0,
  0xbd, 0x67, 0x8c, 0xc0, 0xfa, 0xce, 0x3e, 0x3e, 0x82, 0x6e, 0x95, 0xc0,
  0x03, 0x74, 0x9f, 0xc0, 0x5f, 0x9a, 0xb1, 0x40, 0x70, 0x4d, 0xb0, 0xbf,
  0x33, 0xd1, 0x95, 0x40, 0xa0, 0xc7, 0x28, 0x41, 0x5b, 0x94, 0x91, 0x40,
  0x98, 0x55, 0x9f, 0x40, 0x7b, 0x9c, 0xb1, 0x40, 0x51, 0x44, 0xfa, 0x40,
  0x97, 0x5d, 0xd8, 0x40, 0x1b, 0xb8, 0x87, 0x40, 0xc5, 0xa3, 0xba, 0x40,
  0xf9, 0x31, 0x2c, 0xbe, 0x47, 0xe5, 0x07, 0xc0, 0x71, 0x37, 0x9e, 0xbf,
  0xfe, 0x72, 0xea, 0xc0, 0xc9, 0xdf, 0x8d, 0xc0, 0xe0, 0x33, 0x3c, 0xc1,
  0xe0, 0xcf, 0xb8, 0xc0, 0x0a, 0x4d, 0x04, 0xc1, 0xd8, 0xfd, 0xbc, 0xc0,
  0x8a, 0xa2, 0xe9, 0xc0, 0xb6, 0xb1, 0xfc, 0xc0, 0x5c, 0x4c, 0xf8, 0x37,
  0x32, 0x1e, 0x47, 0xc0, 0x90, 0x76, 0x37, 0xc0, 0xcc, 0x3a, 0x8e, 0xc0,
  0x93, 0x81, 0xf8, 0xbf, 0x2d, 0x5e, 0xc5, 0x40, 0x7d, 0x14, 0x30, 0x41,
  0x9f, 0x78, 0x84, 0x41, 0x1e, 0x94, 0x53, 0x41, 0xf3, 0x6b, 0x57, 0x41,
  0x11, 0xd1, 0xa8, 0x41, 0x5b, 0x2a, 0x63, 0x41, 0xeb, 0xf7, 0x9b, 0x41,
  0xd5, 0xfb, 0xc2, 0x41, 0x7a, 0x49, 0x92, 0x41, 0x4b, 0x0f, 0xaf, 0x41,
  0xbf, 0x72, 0xe8, 0x41, 0x45, 0x6a, 0xb1, 0x41, 0x3c, 0xb2, 0x02, 0x42,
  0x41, 0xbd, 0xdb, 0x41, 0x83, 0x1d, 0xe5, 0x41, 0xc8, 0x72, 0x0c, 0x42,
  0xfc, 0x09, 0xe7, 0x41, 0xf3, 0x1f, 0x14, 0x42, 0x52, 0x29, 0x2a, 0x42,
  0x90, 0x27, 0x27, 0x42, 0x58, 0x48, 0x40, 0x42, 0xab, 0xbe, 0x4a, 0x42,
  0x8a, 0x88, 0x5a, 0x42, 0xf1, 0x17, 0x85, 0x42, 0x50, 0x77, 0x8c, 0x42,
  0x00, 0x00, 0x00, 0x00, 0xa2, 0xf1, 0xff, 0xff, 0x04, 0x00, 0x00, 0x00,
  0x00, 0x04, 0x00, 0x00, 0x36, 0x0b, 0x1a, 0x07, 0xe3, 0x2d, 0x3b, 0x10,
  0xf9, 0xf5, 0xec, 0x31, 0xf0, 0xef, 0xd9, 0x00, 0x23, 0x23, 0x04, 0x38,
  0x1b, 0x42, 0x02, 0x00, 0xce, 0xe7, 0xfa, 0x00, 0x1a, 0x9f, 0x00, 0x3f,
  0xc1, 0x00, 0x32, 0x1e, 0xf5, 0x08, 0x05, 0xee, 0xe3, 0x99, 0x28, 0x3b,
  0xed, 0xf7, 0x26, 0xe8, 0xd7, 0x0c, 0xa8, 0x7f, 0x09, 0x41, 0x43, 0x14,
  0x0a, 0xb3, 0xed, 0xd9, 0x10, 0xe5, 0xdd, 0xf8, 0xc2, 0xe2, 0xe3, 0x00,
  0x13, 0xf8, 0x2b, 0x03, 0x12, 0x8c, 0x01, 0xc7, 0xf7, 0x1b, 0x06, 0xd0,
  0xaa, 0xc9, 0xd2, 0xfe, 0xec, 0x03, 0x2c, 0x09, 0xf6, 0x0c, 0x1d, 0xd1,
  0xee, 0x23, 0xff, 0xfe, 0xcb, 0xe0, 0xd6, 0x0a, 0xef, 0x1b, 0xa8, 0x37,
  0xf0, 0xc2, 0xc1, 0xb9, 0xe2, 0x59, 0x02, 0xf7, 0x12, 0xd9, 0x65, 0x11,
  0x30, 0x03, 0x5c, 0x21, 0xd5, 0x9e, 0x16, 0x43, 0x16, 0xe5, 0x4c, 0x2d,
  0x0b, 0x20, 0xf5, 0x41, 0xf6, 0xd7, 0x0d, 0xe1, 0x11, 0xd4, 0x06, 0x02,
  0x12, 0xd0, 0x0b, 0x17, 0xfd, 0x43, 0x25, 0x33, 0x04, 0xd5, 0x1b, 0xf1,
  0xd9, 0x18, 0x13, 0x2c, 0x29, 0xca, 0x3d, 0x67, 0xfd, 0x21, 0xfd, 0xf0,
  0xe0, 0xcc, 0x3c, 0x04, 0x11, 0xe3, 0x01, 0x24, 0x1f, 0xfa, 0x00, 0x31,
  0xd3, 0x0a, 0xba, 0x1b, 0xce, 0xfd, 0x3d, 0xd9, 0x06, 0xf2, 0x81, 0x81,
  0xf9, 0xa0, 0xae, 0xa0, 0xc6, 0x0b, 0xc5, 0x12, 0x81, 0xfb, 0x0a, 0xaa,
  0x04, 0xe1, 0xc9, 0xc4, 0xc3, 0xe0, 0xd4, 0xdf, 0xc0, 0x14, 0xba, 0x2e,
  0xf7, 0x0a, 0xf8, 0x1d, 0x07, 0xcd, 0xaf, 0xc7, 0x0e, 0x17, 0xef, 0x1c,
  0xe7, 0xcd, 0x21, 0x67, 0xf4, 0xf0, 0x37, 0x1c, 0xa9, 0xe7, 0x03, 0x0c,
  0xee, 0x1f, 0xeb, 0xfb, 0xd6, 0xaf, 0x61, 0x7f, 0xf3, 0x20, 0x60, 0xff,
  0xad, 0xb6, 0x25, 0x40, 0xeb, 0x22, 0x54, 0x1e, 0x17, 0x1d, 0x0e, 0x38,
  0x1c, 0xef, 0x58, 0x07, 0xe2, 0x81, 0x05, 0x06, 0x21, 0x9d, 0x38, 0x1b,
  0xc9, 0xd2, 0xf5, 0x41, 0xcb, 0x19, 0xfd, 0xe9, 0x11, 0xb3, 0x08, 0x23,
  0xd6, 0x39, 0x01, 0x0a, 0x07, 0xf0, 0xd8, 0x19, 0x00, 0xc3, 0x36, 0x1c,
  0xf4, 0xee, 0x03, 0x18, 0xc9, 0xcf, 0xa4, 0xb9, 0x32, 0x38, 0xc5, 0x39,
  0x04, 0x19, 0x17, 0x36, 0x16, 0xf9, 0xe9, 0xf1, 0xf8, 0xcd, 0xbe, 0xed,
  0x1b, 0x2b, 0xe9, 0x3e, 0x25, 0xe0, 0xfb, 0x25, 0x09, 0x1f, 0xdb, 0xe8,
  0x12, 0x89, 0x9d, 0x4d, 0x12, 0x0b, 0xff, 0x28, 0xf1, 0x19, 0x22, 0xe9,
  0x1c, 0xf2, 0x14, 0x10, 0xea, 0xd7, 0x04, 0x3b, 0xfc, 0xfa, 0xd4, 0x00,
  0x26, 0x0f, 0xf1, 0x2f, 0x2c, 0x11, 0xf2, 0xeb, 0xf3, 0x06, 0xe3, 0xf2,
  0xfb, 0x14, 0xe2, 0x09, 0x26, 0x16, 0xf8, 0x2a, 0x05, 0xed, 0x0b, 0xe9,
  0xfe, 0xef, 0xd7, 0xe9, 0x36, 0x45, 0xf3, 0xd5, 0xd0, 0xe3, 0x12, 0xde,
  0x20, 0x1e, 0xf8, 0x27, 0xea, 0xf3, 0x1f, 0x1b, 0xee, 0x07, 0x07, 0x0b,
  0x04, 0x0c, 0x21, 0xf8, 0x25, 0xf3, 0xf1, 0xeb, 0x0c, 0xe6, 0xf8, 0xe9,
  0x18, 0x0d, 0xff, 0x37, 0xfa, 0x38, 0x46, 0xe4, 0xf7, 0xd3, 0x0c, 0x26,
  0xfb, 0xfb, 0xd0, 0xf7, 0xf8, 0xf4, 0x02, 0xf5, 0x15, 0x32, 0x07, 0xf9,
  0xdb, 0xd9, 0x09, 0x0a, 0x07, 0x0c, 0x25, 0x0c, 0xba, 0xbf, 0x1e, 0x35,
  0xfb, 0x79, 0x11, 0x2c, 0xf2, 0xfe, 0x2c, 0xf9, 0x01, 0x4a, 0x20, 0xdb,
  0x45, 0x45, 0x43, 0x33, 0xd9, 0x3c, 0x14, 0xcc, 0xe0, 0x2d, 0x12, 0x4b,
  0x2a, 0x07, 0x3a, 0x7f, 0x1f, 0x0a, 0x24, 0x05, 0xc7, 0x2b, 0x2b, 0xd3,
  0xe0, 0x1d, 0x07, 0x29, 0xe7, 0x06, 0xfe, 0x0b, 0xf4, 0xf7, 0x33, 0x14,
  0xf5, 0x1e, 0x35, 0x16, 0xe3, 0xa7, 0x10, 0x38, 0x04, 0xd1, 0x0a, 0xd9,
  0x28, 0x07, 0x0c, 0x4a, 0x30, 0xfd, 0x19, 0xed, 0xf8, 0xde, 0x20, 0x2e,
  0x20, 0xe9, 0x0d, 0xfa, 0x09, 0x09, 0x3e, 0xf4, 0x22, 0xe5, 0x1f, 0x0f,
  0x04, 0xd2, 0x0a, 0x0b, 0x28, 0xee, 0x30, 0x15, 0xed, 0x11, 0xe3, 0x29,
  0x07, 0x48, 0xef, 0x30, 0xff, 0x81, 0xdb, 0xb6, 0xea, 0x16, 0xda, 0xaf,
  0xc9, 0xf2, 0xf8, 0x51, 0xed, 0x19, 0x20, 0x3b, 0xf5, 0x88, 0x00, 0xfd,
  0xf5, 0x0d, 0x08, 0x0b, 0xc1, 0xf3, 0xc3, 0x13, 0xf9, 0x40, 0xec, 0x02,
  0xfa, 0xa8, 0xfc, 0xd5, 0xd4, 0x27, 0xe6, 0xc8, 0xa6, 0xa5, 0x08, 0x37,
  0x14, 0x3a, 0xd2, 0x1e, 0xfd, 0xd1, 0x32, 0xed, 0xc1, 0x55, 0x31, 0xa8,
  0x6d, 0x43, 0x45, 0x18, 0x4b, 0x0b, 0x4c, 0xf0, 0xbc, 0xc5, 0x34, 0x7b,
  0x7f, 0xe7, 0x2c, 0x1a, 0x01, 0xed, 0x9f, 0x07, 0x23, 0x27, 0xd7, 0xef,
  0xdf, 0x13, 0xed, 0xd4, 0xfc, 0x69, 0x10, 0xd7, 0x7f, 0xee, 0x16, 0xdc,
  0x28, 0x16, 0x7f, 0x27, 0x81, 0xec, 0x61, 0x55, 0x11, 0xde, 0xb6, 0x33,
  0x06, 0x1d, 0xb8, 0x40, 0xe2, 0xee, 0xee, 0x04, 0x38, 0x37, 0xeb, 0xc2,
  0xe4, 0x30, 0xe9, 0xd5, 0x21, 0x24, 0x3b, 0x19, 0x46, 0xd9, 0x52, 0x2a,
  0xbd, 0xb4, 0x03, 0x30, 0x51, 0xcc, 0xde, 0x36, 0xc1, 0xdd, 0x81, 0x01,
  0xe5, 0x08, 0xcc, 0x4a, 0xf5, 0xc2, 0xe7, 0x8e, 0x00, 0x34, 0xe7, 0x82,
  0x34, 0xd8, 0xcb, 0xf3, 0xe6, 0x32, 0x5c, 0x05, 0xda, 0xa0, 0xf9, 0x27,
  0xee, 0x2c, 0xb9, 0xc9, 0xc9, 0x08, 0xae, 0xf4, 0x19, 0x8f, 0xd7, 0xf1,
  0x0d, 0xe7, 0x11, 0x06, 0x06, 0x30, 0x01, 0x04, 0x5a, 0x02, 0xe2, 0x2d,
  0xf9, 0xd9, 0x15, 0x35, 0xc8, 0xea, 0x07, 0x18, 0xef, 0x09, 0x0b, 0xea,
  0x2e, 0xf0, 0x4b, 0x25, 0xe8, 0xcb, 0x56, 0xfb, 0xbe, 0xc6, 0x04, 0xfe,
  0xf5, 0x0d, 0x7d, 0x1e, 0xb0, 0x89, 0x4d, 0x07, 0xec, 0xc6, 0x0e, 0x0a,
  0xb5, 0xe7, 0x47, 0x29, 0xf9, 0xfa, 0x30, 0x32, 0xe6, 0xd4, 0x6b, 0x36,
  0xd2, 0xf3, 0xe7, 0x17, 0xbf, 0xd1, 0x0f, 0x1f, 0xcb, 0x19, 0x2e, 0x04,
  0xf5, 0x01, 0x38, 0x2d, 0x30, 0x8d, 0x2f, 0x4a, 0xe7, 0x0d, 0xca, 0xda,
  0xff, 0x91, 0x09, 0x06, 0x2e, 0x0c, 0x09, 0x4d, 0xde, 0x81, 0x13, 0x2d,
  0xfb, 0xa8, 0xed, 0x0c, 0xfb, 0xce, 0xcc, 0xf0, 0x0a, 0x2d, 0x1c, 0x34,
  0x5e, 0xd9, 0x37, 0x3f, 0xe4, 0x2d, 0xf9, 0xd9, 0x32, 0x8d, 0xb5, 0x3f,
  0x05, 0x0a, 0xba, 0x6f, 0x1a, 0xd9, 0x54, 0x2f, 0x02, 0xe5, 0x03, 0xfa,
  0x0b, 0x15, 0xd5, 0xd5, 0x0d, 0x30, 0x96, 0x45, 0xe3, 0xb0, 0x1d, 0xe8,
  0x08, 0xb2, 0xee, 0xbe, 0x11, 0x28, 0xef, 0xf5, 0x0f, 0xb8, 0x09, 0x37,
  0x5f, 0xca, 0x53, 0x7f, 0xc1, 0xdf, 0x0f, 0x09, 0xed, 0x0a, 0x26, 0xfe,
  0x30, 0xca, 0xe3, 0x15, 0xfd, 0xbe, 0xfd, 0x27, 0xeb, 0xdf, 0x11, 0xdd,
  0xcc, 0xf4, 0x13, 0x11, 0x2c, 0x13, 0xf9, 0x44, 0x30, 0xeb, 0x40, 0x33,
  0xce, 0xba, 0xfd, 0x03, 0xeb, 0xb7, 0xf3, 0xfa, 0x74, 0x7f, 0x06, 0x07,
  0xec, 0x99, 0x2e, 0x0d, 0xfd, 0x89, 0x03, 0x0d, 0x0b, 0xd9, 0x11, 0x18,
  0x40, 0x59, 0x05, 0x54, 0xe7, 0xf8, 0x48, 0x1a, 0x01, 0x96, 0xff, 0x54,
  0x18, 0xff, 0xf1, 0x0f, 0x2d, 0xd2, 0x08, 0xf0, 0x1b, 0x00, 0x6f, 0x68,
  0xf5, 0x9c, 0x47, 0x0d, 0xfd, 0x06, 0xf6, 0x40, 0x06, 0xf7, 0xea, 0x49,
  0x2d, 0x90, 0x1f, 0x2e, 0xda, 0x15, 0x24, 0xf0, 0xfe, 0x1a, 0xfb, 0xe7,
  0x0d, 0xf5, 0x1b, 0x13, 0xf2, 0x08, 0x35, 0x41, 0xf1, 0x8f, 0x46, 0xfa,
  0xde, 0x7f, 0x1b, 0xce, 0xe4, 0xe2, 0x0f, 0x07, 0xe7, 0x11, 0x03, 0x46,
  0xe4, 0xe7, 0xf3, 0xf8, 0x08, 0x5e, 0x7f, 0x2c, 0x00, 0x00, 0x00, 0x00,
  0xb2, 0xf5, 0xff, 0xff, 0x04, 0x00, 0x00, 0x00, 0x40, 0x00, 0x00, 0x00,
  0x00, 0x00, 0x00, 0x00, 0x00, 0x00, 0x00, 0x00, 0x00, 0x00, 0x00, 0x00,
  0x00, 0x00, 0x00, 0x00, 0x00, 0x00, 0x00, 0x00, 0x00, 0x00, 0x00, 0x00,
  0x00, 0x00, 0x00, 0x00, 0x00, 0x00, 0x00, 0x00, 0x00, 0x00, 0x00, 0x00,
  0x00, 0x00, 0x00, 0x00, 0x00, 0x00, 0x00, 0x00, 0x00, 0x00, 0x00, 0x00,
  0x00, 0x00, 0x00, 0x00, 0x00, 0x00, 0x00, 0x00, 0x00, 0x00, 0x00, 0x00,
  0x00, 0x00, 0x00, 0x00, 0x00, 0x00, 0x00, 0x00, 0x02, 0xf6, 0xff, 0xff,
  0x04, 0x00, 0x00, 0x00, 0x00, 0x04, 0x00, 0x00, 0x71, 0xa2, 0xde, 0xbe,
  0x8e, 0xf0, 0xd9, 0xbe, 0x4c, 0x31, 0x0b, 0xbf, 0x2f, 0x09, 0x09, 0xbd,
  0x57, 0xeb, 0x2b, 0x3f, 0x45, 0x3b, 0x01, 0x3e, 0x10, 0x5e, 0xfc, 0x3d,
  0x00, 0xba, 0x13, 0xbd, 0xe9, 0x9b, 0x50, 0x3e, 0x8f, 0xd8, 0x8b, 0xbe,
  0xcb, 0x56, 0x15, 0x3f, 0xe3, 0xdc, 0x2c, 0xbe, 0xe6, 0x41, 0x1e, 0xbf,
  0xb5, 0xf0, 0x7a, 0x3d, 0x31, 0x78, 0x49, 0xbe, 0xa7, 0x8e, 0x56, 0x3f,
  0xc7, 0xc7, 0x5f, 0xbe, 0xf8, 0xc9, 0xe1, 0xbd, 0x08, 0x1f, 0xb7, 0xbe,
  0xd7, 0xcc, 0xee, 0x3d, 0x01, 0xf8, 0x67, 0x3f, 0x1f, 0x1b, 0x87, 0xbe,
  0x9a, 0x6a, 0xc0, 0xbc, 0xba, 0x3e, 0xff, 0x3c, 0x3e, 0x99, 0x73, 0x3e,
  0xc3, 0xbe, 0x81, 0x3d, 0x1c, 0xe7, 0x0c, 0x3f, 0x2b, 0x24, 0x1e, 0xbf,
  0xc0, 0x1d, 0x96, 0xbe, 0xf1, 0xb9, 0x3f, 0x3e, 0xa0, 0x3d, 0x28, 0xbf,
  0x8e, 0xf5, 0x11, 0x3f, 0xf4, 0x73, 0x21, 0xbf, 0xd7, 0xa4, 0xd4, 0xbe,
  0x02, 0xf2, 0xcf, 0xbd, 0x0e, 0xf1, 0x56, 0x3e, 0x70, 0x9c, 0x26, 0x3f,
  0x87, 0xa0, 0x03, 0x3e, 0x6d, 0x27, 0xeb, 0xbd, 0xbf, 0xc4, 0x49, 0xbd,
  0xa7, 0x75, 0x07, 0x3c, 0x67, 0x52, 0x86, 0xbe, 0xfb, 0x31, 0xd0, 0x3e,
  0x4f, 0xf9, 0x9e, 0x3e, 0x18, 0x27, 0xce, 0xbe, 0x9b, 0xdf, 0xd2, 0x3e,
  0x0a, 0x00, 0xb5, 0xbe, 0xfb, 0x31, 0x2d, 0x3f, 0x77, 0x9d, 0xad, 0xbd,
  0xae, 0x75, 0xe9, 0xbe, 0x0d, 0x3b, 0xa8, 0xbe, 0x1b, 0x42, 0x13, 0xbe,
  0xbf, 0x10, 0x55, 0x3f, 0xb1, 0x57, 0x83, 0xbd, 0x83, 0xf0, 0x50, 0x3e,
  0xf8, 0x05, 0x31, 0x3e, 0x3b, 0x22, 0xc3, 0x3e, 0x8f, 0x96, 0x01, 0xbe,
  0x9f, 0x3d, 0xb2, 0x3e, 0x0f, 0x68, 0x9d, 0x3d, 0x8d, 0x27, 0x82, 0xbf,
  0xfe, 0xc3, 0x1a, 0x3f, 0x50, 0x0a, 0x6a, 0xbe, 0x47, 0x0c, 0x7a, 0x3e,
  0xce, 0xe5, 0x95, 0xbb, 0x47, 0xd5, 0x7b, 0xbe, 0xf3, 0xce, 0xc3, 0xbe,
  0x4f, 0xad, 0x42, 0x3e, 0xcb, 0xdf, 0x41, 0x3e, 0x9f, 0xa3, 0x91, 0x3e,
  0x01, 0x1c, 0x13, 0xba, 0x13, 0x6f, 0x99, 0x3e, 0x63, 0x6f, 0xb7, 0x3e,
  0x31, 0xd6, 0x85, 0xbe, 0x2f, 0xc1, 0x59, 0x3e, 0x94, 0x6c, 0x4e, 0xbf,
  0x2f, 0x3c, 0xde, 0xbe, 0x07, 0x3a, 0xf2, 0x3e, 0xa4, 0x28, 0x52, 0xbd,
  0xf5, 0x4c, 0x7c, 0x3e, 0x4b, 0x84, 0x26, 0x3f, 0x37, 0x32, 0x95, 0x3e,
  0xd7, 0x96, 0xc2, 0xbe, 0x3d, 0x75, 0x94, 0x3d, 0x73, 0xe2, 0xbe, 0x3e,
  0xf5, 0xaa, 0xcb, 0xbd, 0x40, 0x11, 0x8c, 0xbe, 0x5c, 0xaa, 0x96, 0x3e,
  0x18, 0x53, 0x86, 0xbc, 0x82, 0xe3, 0x41, 0xbe, 0xb3, 0x15, 0xbf, 0xbd,
  0x03, 0x16, 0xa0, 0xbe, 0x25, 0x52, 0x62, 0xbf, 0xcf, 0x67, 0x0d, 0x3f,
  0xe9, 0xdd, 0x70, 0xbe, 0x95, 0x71, 0x88, 0x3e, 0x72, 0xd8, 0x4b, 0x3f,
  0x38, 0xfa, 0x5e, 0x3f, 0xaa, 0xf7, 0x67, 0xbe, 0x7b, 0x45, 0xea, 0xbc,
  0x7f, 0x7f, 0xf3, 0x3d, 0xf7, 0x48, 0x0b, 0x3e, 0xb8, 0x72, 0x0d, 0xbd,
  0x42, 0xab, 0x68, 0x3e, 0xc4, 0xb4, 0x1f, 0x3f, 0xe4, 0x28, 0x42, 0x3e,
  0xf0, 0x37, 0x86, 0x3e, 0xa1, 0x5c, 0x23, 0xbf, 0x5b, 0xbf, 0x92, 0xbe,
  0x4a, 0xbe, 0x85, 0x3f, 0xa3, 0x91, 0xac, 0xbe, 0x4f, 0x3e, 0x93, 0x3e,
  0xe2, 0xb3, 0xb2, 0x3f, 0x4e, 0xff, 0x87, 0x3f, 0x96, 0xfc, 0xe3, 0x3d,
  0x72, 0x44, 0x60, 0x3e, 0xa2, 0x9f, 0x3b, 0x3e, 0x68, 0x40, 0xa5, 0xbd,
  0xcf, 0xf9, 0x01, 0xbe, 0xe3, 0x0c, 0x00, 0x3e, 0x62, 0xc7, 0xa6, 0x3e,
  0x94, 0xd8, 0xb5, 0xbe, 0x6d, 0x73, 0xc4, 0x3c, 0xc8, 0x5d, 0x25, 0xbe,
  0x3b, 0x3d, 0xdc, 0xbd, 0xdd, 0xe3, 0xd8, 0x3e, 0xdd, 0xa9, 0x98, 0xbe,
  0x7e, 0x4f, 0x16, 0x3e, 0x33, 0xb5, 0x4b, 0x3f, 0xe3, 0x24, 0x95, 0x3f,
  0x3c, 0x27, 0x41, 0xbe, 0x1a, 0x7b, 0x17, 0x3e, 0xbb, 0x43, 0xc7, 0xbd,
  0x15, 0xdf, 0xe3, 0x3e, 0xf1, 0x5d, 0x9d, 0xbe, 0x4c, 0x00, 0x71, 0x3e,
  0x7a, 0x6c, 0x4d, 0xbe, 0xee, 0xb0, 0xb2, 0xbd, 0x2c, 0xc5, 0x5e, 0xbe,
  0xfd, 0xc5, 0xd8, 0x3e, 0x87, 0xa8, 0x10, 0xbf, 0x2d, 0x20, 0x65, 0x3f,
  0x8d, 0xe2, 0x66, 0xbe, 0x26, 0x5b, 0x88, 0x3e, 0x77, 0x11, 0x4f, 0x3f,
  0x1d, 0x27, 0x80, 0x3f, 0xb2, 0xbe, 0x1e, 0xbe, 0xcc, 0x0c, 0xe9, 0x3c,
  0x49, 0x2b, 0x46, 0x3e, 0xca, 0x69, 0x3c, 0x3e, 0x70, 0x03, 0x2c, 0x3e,
  0x0e, 0xfa, 0x30, 0x3e, 0x00, 0x85, 0xba, 0x3c, 0xc8, 0x8e, 0xae, 0x3d,
  0xec, 0x3a, 0x95, 0xbe, 0xd0, 0xd0, 0xff, 0xbd, 0x3b, 0xd0, 0xf0, 0xbe,
  0xe5, 0x70, 0xbd, 0x3e, 0x5a, 0xad, 0xbb, 0x3d, 0x76, 0x5e, 0xae, 0xbc,
  0x71, 0x59, 0xb1, 0xbd, 0xc5, 0xfc, 0xaf, 0x3f, 0xa1, 0xb1, 0x88, 0xbd,
  0x0b, 0xfa, 0xc1, 0xbe, 0x73, 0xfe, 0xc8, 0xbc, 0x71, 0x9f, 0x0a, 0x3e,
  0x28, 0x1b, 0xe0, 0x3d, 0x64, 0xe3, 0xba, 0x3e, 0xa0, 0x79, 0x3d, 0x3e,
  0x47, 0xb8, 0x93, 0xbe, 0x52, 0x85, 0xfe, 0xbe, 0xfe, 0x61, 0x2c, 0xbf,
  0x07, 0x6e, 0xe6, 0xbe, 0x28, 0x9b, 0x41, 0xbd, 0xab, 0xf3, 0x9c, 0x3e,
  0x89, 0x0b, 0x12, 0x3f, 0x9a, 0xc3, 0xbb, 0xbe, 0x4e, 0xb5, 0xe4, 0x3e,
  0xee, 0x01, 0xa5, 0xbe, 0xff, 0xcd, 0xf6, 0xbb, 0x26, 0x2b, 0xe9, 0xbc,
  0x41, 0xfb, 0xf2, 0xbc, 0xf6, 0x74, 0x64, 0x3e, 0x0c, 0x60, 0x87, 0x3e,
  0x0b, 0x2f, 0x56, 0xbd, 0x53, 0x13, 0x71, 0x3d, 0xb3, 0x9d, 0x70, 0xbe,
  0x96, 0x94, 0x71, 0xbe, 0xc8, 0x47, 0x4d, 0xbe, 0x08, 0xe1, 0xe9, 0xbd,
  0x0f, 0x82, 0x3b, 0x3e, 0x84, 0x69, 0x11, 0x3f, 0x77, 0x55, 0x54, 0xbf,
  0xd8, 0xf2, 0x04, 0x3f, 0x49, 0x9a, 0xb4, 0xbe, 0x49, 0xb2, 0xf1, 0xbe,
  0xa9, 0x14, 0x74, 0xbe, 0x87, 0x64, 0x26, 0x3e, 0x87, 0x41, 0x8f, 0xbc,
  0x05, 0xe0, 0xad, 0x3e, 0xe7, 0x6a, 0x48, 0xbe, 0x8c, 0xba, 0xcd, 0xbb,
  0xda, 0xd9, 0xd1, 0xbe, 0x3d, 0x8d, 0x4b, 0xbd, 0x4c, 0xf1, 0xcf, 0x3d,
  0x6a, 0x9a, 0x09, 0xbf, 0x62, 0xf5, 0x00, 0x3f, 0x20, 0x9b, 0x13, 0x3f,
  0xc2, 0x0d, 0x2c, 0xbf, 0xaf, 0xb0, 0x2e, 0x3d, 0x74, 0x94, 0x92, 0xbe,
  0x49, 0xfc, 0x9c, 0xbc, 0xba, 0xbd, 0xa8, 0xbe, 0x82, 0x04, 0xf3, 0xbd,
  0x9b, 0xba, 0xa2, 0x3e, 0xb7, 0x79, 0x93, 0x3e, 0x03, 0x2a, 0xdc, 0xbd,
  0xc1, 0x8e, 0x52, 0x3e, 0xaf, 0x26, 0xfa, 0xbe, 0xd0, 0xaa, 0x97, 0xbe,
  0x84, 0x6c, 0x31, 0x3e, 0xb6, 0xcd, 0x78, 0xbe, 0x23, 0x6b, 0x63, 0x3f,
  0xe3, 0xca, 0x42, 0x3e, 0x5b, 0x95, 0x22, 0xbf, 0x66, 0xea, 0x10, 0x3e,
  0xc5, 0x88, 0x1a, 0x3d, 0x3d, 0xd4, 0x84, 0xbe, 0x26, 0xda, 0x98, 0xbe,
  0x1f, 0xd0, 0x92, 0xbc, 0x19, 0x22, 0x13, 0x3f, 0x5d, 0x91, 0xfa, 0x3e,
  0x98, 0xeb, 0xaf, 0xbe, 0x26, 0xbf, 0x56, 0x3e, 0x73, 0xfc, 0x53, 0xbf,
  0xc1, 0xf4, 0x9e, 0xbe, 0x3c, 0x27, 0x61, 0xbe, 0x1a, 0xa6, 0xe9, 0xbd,
  0x9c, 0xfa, 0x96, 0x3f, 0x49, 0xb9, 0x03, 0x3f, 0x61, 0x8b, 0x89, 0xbe,
  0xea, 0xcf, 0x82, 0xbe, 0x32, 0x3d, 0xd2, 0xbe, 0x5c, 0x00, 0x9e, 0x3c,
  0xc2, 0xce, 0x21, 0x3e, 0x0d, 0x3e, 0xf6, 0x3d, 0x3c, 0xd6, 0x09, 0x3f,
  0x85, 0x29, 0x63, 0x3d, 0x4c, 0xb2, 0x02, 0xbe, 0x72, 0xf7, 0xa4, 0xbd,
  0x2c, 0x9c, 0x8a, 0xbf, 0x58, 0xb6, 0xd2, 0xbc, 0x8d, 0x8c, 0xb5, 0xbd,
  0xa7, 0x5e, 0x31, 0xbf, 0x4f, 0xdc, 0x8f, 0x3f, 0xbd, 0x60, 0x0e, 0x3f,
  0x00, 0x00, 0x00, 0x00, 0x12, 0xfa, 0xff, 0xff, 0x04, 0x00, 0x00, 0x00,
  0x00, 0x04, 0x00, 0x00, 0x2d, 0x02, 0x25, 0xbc, 0xb2, 0xee, 0xa9, 0xbc,
  0x40, 0xdc, 0xbb, 0x3b, 0x53, 0x7d, 0xdb, 0xba, 0xfc, 0x56, 0x6f, 0x3c,
  0xb0, 0x0c, 0x07, 0x3b, 0x56, 0x44, 0x2e, 0xbb, 0x54, 0xd6, 0xdd, 0xbb,
  0xb0, 0xfd, 0x70, 0x3a, 0xe1, 0x2e, 0xd1, 0x3a, 0x59, 0xeb, 0x79, 0xbb,
  0x78, 0x2d, 0x34, 0xbc, 0x6a, 0x4b, 0xc3, 0x3b, 0xad, 0x34, 0xab, 0xbb,
  0xfa, 0x09, 0x9d, 0xbc, 0x3e, 0x3d, 0xcd, 0xba, 0x41, 0x40, 0x9a, 0xbc,
  0xcb, 0x05, 0x2e, 0xbd, 0x0c, 0x7f, 0x89, 0x3b, 0x69, 0x7e, 0x02, 0x3b,
  0x10, 0xfc, 0xe0, 0x3b, 0xdf, 0x75, 0x96, 0xbb, 0x03, 0xa0, 0x97, 0xbc,
  0x90, 0xe6, 0xcf, 0xbb, 0x88, 0x91, 0x89, 0xbc, 0x82, 0x25, 0x22, 0xbb,
  0x8e, 0x8f, 0xea, 0x3c, 0xc5, 0x97, 0x97, 0x3c, 0xaf, 0xf7, 0x80, 0xbb,
  0xb8, 0x8f, 0x64, 0xbc, 0xfd, 0xf9, 0x09, 0xbc, 0x70, 0x7b, 0x91, 0x3b,
  0xca, 0x18, 0x7d, 0x3b, 0x22, 0xec, 0x73, 0xba, 0xef, 0xd5, 0x89, 0xb9,
  0x75, 0x51, 0xdb, 0xb8, 0x30, 0xa0, 0x41, 0xbb, 0x0a, 0x1d, 0xf5, 0x3a,
  0xf0, 0xb0, 0x5f, 0x3a, 0x80, 0xd7, 0x81, 0xba, 0xd9, 0xef, 0xea, 0x3a,
  0xb7, 0x93, 0x32, 0xbb, 0xcd, 0x19, 0x41, 0x3c, 0x5b, 0x54, 0xf0, 0x3b,
  0xe9, 0xa0, 0x45, 0x3c, 0x76, 0x6e, 0x95, 0x3a, 0xaa, 0xc5, 0x75, 0x3b,
  0xe3, 0x92, 0x6c, 0x3c, 0x44, 0x5d, 0xcc, 0xbb, 0x02, 0x9d, 0x50, 0xbc,
  0x8f, 0x08, 0x07, 0x3c, 0x3e, 0x7c, 0xc2, 0x3b, 0x96, 0x51, 0xc0, 0x3b,
  0xfc, 0x81, 0xc4, 0xba, 0x88, 0xe3, 0xc0, 0x39, 0x77, 0xd1, 0x46, 0xba,
  0x54, 0xc0, 0x81, 0xbc, 0x21, 0x44, 0xac, 0xba, 0x08, 0x27, 0x35, 0xbb,
  0xe7, 0x8d, 0x7d, 0xbb, 0x1f, 0xb1, 0xf6, 0xbb, 0x48, 0x84, 0x98, 0x3b,
  0x10, 0x3d, 0xb4, 0xbc, 0x96, 0xe1, 0xeb, 0xbb, 0x31, 0xb3, 0x9e, 0x3b,
  0x42, 0x52, 0x79, 0x3c, 0xf9, 0xae, 0xee, 0x3b, 0x81, 0x21, 0x03, 0xbb,
  0xa5, 0x37, 0x80, 0xbc, 0x66, 0x41, 0xbb, 0x37, 0x1c, 0x52, 0x81, 0xbb,
  0x1b, 0x69, 0x56, 0xbb, 0xd0, 0xf5, 0x75, 0xbb, 0xb1, 0x26, 0xe0, 0xbb,
  0x31, 0x8e, 0x11, 0xbc, 0x00, 0x3c, 0xba, 0x3b, 0x74, 0x4b, 0xff, 0x3b,
  0x1e, 0xee, 0xc0, 0x3b, 0xe0, 0x6d, 0x82, 0x3c, 0xa5, 0xcb, 0x4b, 0x3b,
  0x3a, 0x6c, 0x6a, 0xba, 0xf6, 0x3e, 0xc1, 0x3a, 0x2e, 0xfc, 0x13, 0xbc,
  0x80, 0xdc, 0xfe, 0x39, 0x99, 0x82, 0x83, 0x3b, 0x81, 0xb5, 0xff, 0x3a,
  0x2f, 0xb5, 0xa0, 0x3b, 0x18, 0xd9, 0x01, 0xbc, 0xd5, 0x7b, 0xf4, 0x39,
  0x0f, 0x90, 0x33, 0xbb, 0xb5, 0x05, 0x97, 0x3a, 0xc6, 0x7d, 0x20, 0x3c,
  0x92, 0xe4, 0x64, 0xbb, 0x32, 0xca, 0x8f, 0xba, 0x39, 0xde, 0xe7, 0xbb,
  0x57, 0x0a, 0x55, 0xbd, 0xb3, 0x2f, 0x90, 0x3a, 0xcb, 0x73, 0x29, 0x3c,
  0x71, 0x69, 0x25, 0xba, 0x61, 0x81, 0xe0, 0xba, 0x34, 0xd1, 0x18, 0xbc,
  0x87, 0xd0, 0xf1, 0xba, 0xe1, 0xcb, 0x58, 0xbb, 0xf8, 0xb7, 0xad, 0xbb,
  0x2c, 0x3f, 0x5f, 0xbb, 0x45, 0x47, 0x06, 0x3c, 0x46, 0x2f, 0xc2, 0x3b,
  0x95, 0x1f, 0xbf, 0x3b, 0x96, 0x01, 0x95, 0x3c, 0xe2, 0xad, 0x1d, 0x3c,
  0x73, 0x7d, 0x4c, 0x3c, 0x8f, 0x18, 0xec, 0x3a, 0x0d, 0xf5, 0x9d, 0x3c,
  0xf5, 0xd4, 0xb6, 0x3b, 0x60, 0x2f, 0x9c, 0xbb, 0x10, 0x85, 0x9e, 0x37,
  0x3f, 0x1b, 0xd2, 0xba, 0x82, 0xc6, 0xcb, 0x3b, 0xd8, 0x8d, 0x9e, 0xba,
  0xad, 0xc9, 0x9e, 0xbb, 0xdd, 0x49, 0x94, 0x3b, 0x53, 0x76, 0xd0, 0xbb,
  0x2a, 0xaa, 0x32, 0x3c, 0x4d, 0x6e, 0x75, 0xbb, 0xf8, 0xc4, 0x5d, 0x3c,
  0x04, 0x12, 0x02, 0x3c, 0x1e, 0xc5, 0xac, 0x3b, 0x5e, 0x8b, 0x7b, 0x39,
  0x30, 0x7e, 0xbb, 0xba, 0x39, 0x64, 0xcc, 0x3a, 0x4d, 0xc6, 0x21, 0xbc,
  0xee, 0x8d, 0x02, 0x3c, 0x85, 0xd7, 0x1d, 0xbb, 0x72, 0x8e, 0x58, 0xbb,
  0x47, 0x80, 0x82, 0x3b, 0x9a, 0xa0, 0xdd, 0xba, 0xbf, 0x25, 0x6a, 0x3b,
  0x7c, 0x07, 0x91, 0x3a, 0x8e, 0x5a, 0xec, 0x3b, 0x80, 0x6f, 0x8e, 0x3c,
  0x12, 0x11, 0x4f, 0x3c, 0xc7, 0xdf, 0x97, 0x3c, 0x4b, 0x18, 0xc6, 0x3b,
  0x71, 0xd3, 0x5c, 0x3b, 0x1c, 0x27, 0x53, 0x3c, 0x10, 0x41, 0x2e, 0x3c,
  0xe7, 0x81, 0x4e, 0x3b, 0xbe, 0xf6, 0x15, 0xbb, 0x21, 0x0b, 0x23, 0xbb,
  0x98, 0x67, 0x2a, 0xbb, 0xcf, 0xf3, 0xca, 0xb9, 0x19, 0x4c, 0xcd, 0xbb,
  0x8f, 0x42, 0x4f, 0xbc, 0xe2, 0xd9, 0xa9, 0x38, 0x37, 0x23, 0x7c, 0x3c,
  0x9f, 0x9b, 0xac, 0xba, 0x1d, 0x2a, 0x98, 0x3c, 0xd2, 0x4a, 0xd0, 0x3b,
  0x43, 0x52, 0x03, 0x3c, 0xc1, 0x60, 0xe1, 0xba, 0x89, 0x59, 0xf3, 0xbc,
  0x32, 0xdf, 0x09, 0xbc, 0x3a, 0x49, 0xaf, 0x38, 0x9e, 0x56, 0x65, 0x3a,
  0x00, 0xb6, 0x02, 0x3c, 0xb9, 0x33, 0x04, 0x3b, 0xf1, 0x4f, 0x83, 0xbb,
  0xef, 0xb5, 0xfb, 0xba, 0xf9, 0x13, 0xda, 0x3a, 0xff, 0x3b, 0xda, 0x3b,
  0x48, 0x6e, 0x47, 0xb8, 0xc4, 0x0f, 0x4c, 0xbb, 0x49, 0xa3, 0xf8, 0xbb,
  0x3d, 0x0f, 0xd0, 0x3a, 0xe6, 0x18, 0x36, 0xbc, 0x36, 0x92, 0x5d, 0xbc,
  0xb7, 0xe9, 0x16, 0xbc, 0x3f, 0x40, 0x0f, 0xbb, 0x95, 0xce, 0x94, 0x3b,
  0x6f, 0x0a, 0xaa, 0xbb, 0xdb, 0x1e, 0xcf, 0xbb, 0x73, 0x77, 0x28, 0xbb,
  0x7d, 0xbe, 0xe8, 0x3b, 0xdc, 0x84, 0x5c, 0x3a, 0x91, 0x45, 0x6d, 0xba,
  0xf7, 0xe7, 0xf8, 0xbb, 0x79, 0xb6, 0xa2, 0x3c, 0xcc, 0xc3, 0xc9, 0x3c,
  0x94, 0x69, 0x2b, 0x3c, 0xb8, 0x1e, 0x81, 0x3c, 0x99, 0xdf, 0x6a, 0x3c,
  0x2d, 0xd7, 0xbf, 0x3b, 0x2a, 0x6d, 0x30, 0xbd, 0x3a, 0x3e, 0x8e, 0xbc,
  0xed, 0x4e, 0x4f, 0xbc, 0xc6, 0xe4, 0xc5, 0x3b, 0x96, 0xf9, 0xc0, 0x3b,
  0x75, 0x64, 0x0e, 0xbc, 0x50, 0xc6, 0x98, 0xba, 0x0c, 0xb2, 0xbd, 0xba,
  0xea, 0xe9, 0x91, 0xbb, 0x85, 0xe2, 0x87, 0xbb, 0x48, 0x25, 0x90, 0x3c,
  0xf5, 0xea, 0x2c, 0x3b, 0x8c, 0xb1, 0xb1, 0x3b, 0x93, 0x57, 0xc4, 0x3c,
  0xea, 0xd8, 0xb2, 0xbc, 0x10, 0xcc, 0xc4, 0xbc, 0x4e, 0x59, 0x69, 0xbc,
  0xa2, 0x69, 0xfb, 0xbc, 0xba, 0xd4, 0x13, 0xbb, 0x2c, 0x24, 0xb2, 0xba,
  0x51, 0xce, 0x10, 0x3c, 0x3f, 0x55, 0xe0, 0xba, 0x54, 0x07, 0x2f, 0xbc,
  0xc0, 0xc7, 0x3e, 0xb9, 0xac, 0x9c, 0x33, 0x3c, 0xc4, 0x97, 0xfc, 0x3a,
  0x8b, 0x43, 0x41, 0x3a, 0x88, 0xaa, 0x8f, 0x3b, 0x3b, 0xa5, 0x0a, 0x3b,
  0x96, 0xf2, 0x14, 0x3b, 0xf5, 0xe9, 0x58, 0xbc, 0x1a, 0xec, 0xaf, 0xbb,
  0x73, 0x6d, 0x0a, 0xbc, 0x83, 0xf7, 0x0c, 0xbc, 0x57, 0x0e, 0xaa, 0x3c,
  0x81, 0x6b, 0x14, 0x3c, 0x84, 0xa1, 0x05, 0xbd, 0x15, 0xca, 0xc9, 0xba,
  0x52, 0xb3, 0xf0, 0xb9, 0xeb, 0x15, 0x37, 0x3a, 0x6f, 0x80, 0xdc, 0xb9,
  0x7c, 0x06, 0xaa, 0xb9, 0xc6, 0xbc, 0xdc, 0x3c, 0xab, 0xb6, 0xe9, 0x3c,
  0x5f, 0x69, 0x81, 0x3c, 0x04, 0x68, 0xe9, 0x3c, 0xff, 0xa2, 0xb2, 0x3c,
  0x69, 0xab, 0xd9, 0x3b, 0xb5, 0x37, 0x1b, 0xbc, 0xbe, 0x41, 0xcd, 0x3b,
  0x29, 0x5a, 0x2d, 0xba, 0x65, 0x40, 0xb5, 0xba, 0xc0, 0x43, 0x39, 0xbc,
  0x0d, 0x49, 0xc3, 0x3b, 0x62, 0xf0, 0x1c, 0xbb, 0x7e, 0x0c, 0x96, 0xba,
  0x5a, 0x9d, 0xd4, 0x3b, 0xee, 0xa1, 0x8d, 0xbb, 0xf8, 0x81, 0x75, 0x3c,
  0x24, 0xe8, 0x88, 0x3c, 0x68, 0x8b, 0x28, 0x3c, 0x61, 0xcd, 0xb3, 0x3a,
  0x2e, 0x66, 0x8e, 0x3c, 0xf0, 0x24, 0x96, 0x3c, 0x00, 0x00, 0x00, 0x00,
  0x22, 0xfe, 0xff, 0xff, 0x04, 0x00, 0x00, 0x00, 0x20, 0x00, 0x00, 0x00,
  0x6f, 0x4f, 0x06, 0xbe, 0xb3, 0x70, 0x61, 0x3c, 0xf3, 0x6b, 0xc5, 0xbc,
  0x34, 0x83, 0x05, 0x3e, 0x21, 0x64, 0x61, 0x3c, 0x82, 0x74, 0x15, 0xbe,
  0x95, 0xa3, 0xdf, 0x3c, 0x70, 0x0f, 0x89, 0x3e, 0x00, 0x00, 0x00, 0x00,
  0x52, 0xfe, 0xff, 0xff, 0x04, 0x00, 0x00, 0x00, 0x40, 0x00, 0x00, 0x00,
  0x89, 0x44, 0xd0, 0x3f, 0x60, 0x98, 0xe2, 0x3e, 0x94, 0xa2, 0x81, 0xbd,
  0x49, 0xc5, 0x7e, 0xbf, 0x20, 0x48, 0x2a, 0x3f, 0xc6, 0xda, 0x00, 0xbf,
  0x98, 0xee, 0xa5, 0xc1, 0xdf, 0xaf, 0x5f, 0xc1, 0x58, 0x56, 0xf8, 0x3d,
  0xa8, 0x00, 0xb3, 0x3e, 0xc2, 0xdc, 0x96, 0x3f, 0x82, 0x76, 0x7c, 0x3f,
  0x80, 0xdd, 0xef, 0xbc, 0x8c, 0x11, 0xa9, 0x3d, 0x5c, 0x77, 0xe0, 0xbe,
  0x6f, 0xd8, 0xc3, 0xbf, 0x00, 0x00, 0x00, 0x00, 0xa2, 0xfe, 0xff, 0xff,
  0x04, 0x00, 0x00, 0x00, 0x40, 0x00, 0x00, 0x00, 0xfa, 0x0d, 0x9e, 0xbc,
  0xa6, 0x9e, 0xd5, 0x3c, 0xae, 0x49, 0x0d, 0xbc, 0x3c, 0x63, 0x3a, 0xbc,
  0x9e, 0x2a, 0xb2, 0xbc, 0xb0, 0x16, 0x7e, 0x3c, 0x1b, 0xd2, 0x8c, 0xbc,
  0xa5, 0xe1, 0x46, 0xbc, 0x1e, 0xce, 0xfe, 0x3c, 0x18, 0x90, 0x35, 0xbd,
  0x60, 0xea, 0x13, 0x3a, 0x2e, 0x43, 0xb0, 0x3c, 0xd4, 0x53, 0x4b, 0x3c,
  0xde, 0x32, 0x36, 0x3d, 0x1e, 0xe3, 0xb4, 0x3c, 0x03, 0x68, 0x68, 0x3c,
  0x00, 0x00, 0x00, 0x00, 0xf2, 0xfe, 0xff, 0xff, 0x04, 0x00, 0x00, 0x00,
  0x10, 0x00, 0x00, 0x00, 0x01, 0x00, 0x00, 0x00, 0x40, 0x00, 0x00, 0x00,
  0x2f, 0x02, 0x00, 0x00, 0x01, 0x00, 0x00, 0x00, 0x00, 0x00, 0x00, 0x00,
  0x00, 0x00, 0x00, 0x00, 0x00, 0x00, 0x00, 0x00, 0x20, 0xee, 0xff, 0xff,
  0x00, 0x00, 0x00, 0x00, 0x00, 0x00, 0x00, 0x00, 0x00, 0x00, 0x00, 0x00,
  0x30, 0xee, 0xff, 0xff, 0x00, 0x00, 0x00, 0x00, 0x00, 0x00, 0x00, 0x00,
  0x0f, 0x00, 0x00, 0x00, 0x4d, 0x4c, 0x49, 0x52, 0x20, 0x43, 0x6f, 0x6e,
  0x76, 0x65, 0x72, 0x74, 0x65, 0x64, 0x2e, 0x00, 0x01, 0x00, 0x00, 0x00,
  0x14, 0x00, 0x00, 0x00, 0x00, 0x00, 0x0e, 0x00, 0x18, 0x00, 0x04, 0x00,
  0x08, 0x00, 0x0c, 0x00, 0x10, 0x00, 0x14, 0x00, 0x0e, 0x00, 0x00, 0x00,
  0x1c, 0x05, 0x00, 0x00, 0x10, 0x05, 0x00, 0x00, 0x04, 0x05, 0x00, 0x00,
  0x14, 0x00, 0x00, 0x00, 0x04, 0x00, 0x00, 0x00, 0x04, 0x00, 0x00, 0x00,
  0x6d, 0x61, 0x69, 0x6e, 0x00, 0x00, 0x00, 0x00, 0x17, 0x00, 0x00, 0x00,
  0xbc, 0x04, 0x00, 0x00, 0x84, 0x04, 0x00, 0x00, 0x28, 0x04, 0x00, 0x00,
  0xc4, 0x03, 0x00, 0x00, 0x8c, 0x03, 0x00, 0x00, 0x68, 0x03, 0x00, 0x00,
  0x38, 0x03, 0x00, 0x00, 0x10, 0x03, 0x00, 0x00, 0xbc, 0x02, 0x00, 0x00,
  0x94, 0x02, 0x00, 0x00, 0x64, 0x02, 0x00, 0x00, 0x3c, 0x02, 0x00, 0x00,
  0xf4, 0x01, 0x00, 0x00, 0xb0, 0x01, 0x00, 0x00, 0x88, 0x01, 0x00, 0x00,
  0x64, 0x01, 0x00, 0x00, 0x34, 0x01, 0x00, 0x00, 0x0c, 0x01, 0x00, 0x00,
  0xc8, 0x00, 0x00, 0x00, 0xa0, 0x00, 0x00, 0x00, 0x78, 0x00, 0x00, 0x00,
  0x40, 0x00, 0x00, 0x00, 0x04, 0x00, 0x00, 0x00, 0x3a, 0xfc, 0xff, 0xff,
  0x00, 0x00, 0x00, 0x09, 0x08, 0x00, 0x00, 0x00, 0x24, 0x00, 0x00, 0x00,
  0x18, 0x00, 0x00, 0x00, 0x0c, 0x00, 0x00, 0x00, 0x00, 0x00, 0x06, 0x00,
  0x08, 0x00, 0x04, 0x00, 0x06, 0x00, 0x00, 0x00, 0x00, 0x00, 0x80, 0x3f,
  0x01, 0x00, 0x00, 0x00, 0x28, 0x00, 0x00, 0x00, 0x01, 0x00, 0x00, 0x00,
  0x27, 0x00, 0x00, 0x00, 0xd2, 0xfc, 0xff, 0xff, 0x00, 0x00, 0x00, 0x08,
  0x07, 0x00, 0x00, 0x00, 0x18, 0x00, 0x00, 0x00, 0x0c, 0x00, 0x00, 0x00,
  0x04, 0x00, 0x00, 0x00, 0x3c, 0xef, 0xff, 0xff, 0x01, 0x00, 0x00, 0x00,
  0x27, 0x00, 0x00, 0x00, 0x03, 0x00, 0x00, 0x00, 0x26, 0x00, 0x00, 0x00,
  0x11, 0x00, 0x00, 0x00, 0x0a, 0x00, 0x00, 0x00, 0x4a, 0xfc, 0xff, 0xff,
  0x01, 0x00, 0x00, 0x00, 0x10, 0x00, 0x00, 0x00, 0x04, 0x00, 0x00, 0x00,
  0x01, 0x00, 0x00, 0x00, 0x26, 0x00, 0x00, 0x00, 0x02, 0x00, 0x00, 0x00,
  0x25, 0x00, 0x00, 0x00, 0x0e, 0x00, 0x00, 0x00, 0x6e, 0xfc, 0xff, 0xff,
  0x04, 0x00, 0x00, 0x00, 0x10, 0x00, 0x00, 0x00, 0x04, 0x00, 0x00, 0x00,
  0x01, 0x00, 0x00, 0x00, 0x25, 0x00, 0x00, 0x00, 0x02, 0x00, 0x00, 0x00,
  0x24, 0x00, 0x00, 0x00, 0x10, 0x00, 0x00, 0x00, 0x4e, 0xfd, 0xff, 0xff,
  0x00, 0x00, 0x00, 0x05, 0x06, 0x00, 0x00, 0x00, 0x2c, 0x00, 0x00, 0x00,
  0x20, 0x00, 0x00, 0x00, 0x04, 0x00, 0x00, 0x00, 0x32, 0xfe, 0xff, 0xff,
  0x00, 0x00, 0x00, 0x01, 0x08, 0x00, 0x00, 0x00, 0x01, 0x00, 0x00, 0x00,
  0x08, 0x00, 0x00, 0x00, 0x01, 0x00, 0x00, 0x00, 0x01, 0x00, 0x00, 0x00,
  0x24, 0x00, 0x00, 0x00, 0x01, 0x00, 0x00, 0x00, 0x23, 0x00, 0x00, 0x00,
  0xd2, 0xfc, 0xff, 0xff, 0x04, 0x00, 0x00, 0x00, 0x10, 0x00, 0x00, 0x00,
  0x04, 0x00, 0x00, 0x00, 0x01, 0x00, 0x00, 0x00, 0x23, 0x00, 0x00, 0x00,
  0x02, 0x00, 0x00, 0x00, 0x22, 0x00, 0x00, 0x00, 0x0f, 0x00, 0x00, 0x00,
  0xc6, 0xfc, 0xff, 0xff, 0x00, 0x00, 0x00, 0x16, 0x18, 0x00, 0x00, 0x00,
  0x0c, 0x00, 0x00, 0x00, 0x04, 0x00, 0x00, 0x00, 0x18, 0xf0, 0xff, 0xff,
  0x01, 0x00, 0x00, 0x00, 0x22, 0x00, 0x00, 0x00, 0x02, 0x00, 0x00, 0x00,
  0x21, 0x00, 0x00, 0x00, 0x0c, 0x00, 0x00, 0x00, 0x22, 0xfd, 0xff, 0xff,
  0x05, 0x00, 0x00, 0x00, 0x10, 0x00, 0x00, 0x00, 0x04, 0x00, 0x00, 0x00,
  0x01, 0x00, 0x00, 0x00, 0x21, 0x00, 0x00, 0x00, 0x01, 0x00, 0x00, 0x00,
  0x20, 0x00, 0x00, 0x00, 0x42, 0xfd, 0xff, 0xff, 0x04, 0x00, 0x00, 0x00,
  0x10, 0x00, 0x00, 0x00, 0x04, 0x00, 0x00, 0x00, 0x01, 0x00, 0x00, 0x00,
  0x20, 0x00, 0x00, 0x00, 0x02, 0x00, 0x00, 0x00, 0x1f, 0x00, 0x00, 0x00,
  0x10, 0x00, 0x00, 0x00, 0x22, 0xfe, 0xff, 0xff, 0x00, 0x00, 0x00, 0x01,
  0x02, 0x00, 0x00, 0x00, 0x24, 0x00, 0x00, 0x00, 0x18, 0x00, 0x00, 0x00,
  0x04, 0x00, 0x00, 0x00, 0xb2, 0xfd, 0xff, 0xff, 0x00, 0x00, 0x00, 0x01,
  0x01, 0x00, 0x00, 0x00, 0x01, 0x00, 0x00, 0x00, 0x01, 0x00, 0x00, 0x00,
  0x1f, 0x00, 0x00, 0x00, 0x03, 0x00, 0x00, 0x00, 0x1e, 0x00, 0x00, 0x00,
  0x05, 0x00, 0x00, 0x00, 0x02, 0x00, 0x00, 0x00, 0x62, 0xfe, 0xff, 0xff,
  0x00, 0x00, 0x00, 0x02, 0x03, 0x00, 0x00, 0x00, 0x28, 0x00, 0x00, 0x00,
  0x1c, 0x00, 0x00, 0x00, 0x04, 0x00, 0x00, 0x00, 0x54, 0xfe, 0xff, 0xff,
  0x00, 0x00, 0x00, 0x01, 0x01, 0x00, 0x00, 0x00, 0x01, 0x00, 0x00, 0x00,
  0x01, 0x00, 0x00, 0x00, 0x01, 0x00, 0x00, 0x00, 0x1e, 0x00, 0x00, 0x00,
  0x03, 0x00, 0x00, 0x00, 0x1d, 0x00, 0x00, 0x00, 0x06, 0x00, 0x00, 0x00,
  0x07, 0x00, 0x00, 0x00, 0xea, 0xfd, 0xff, 0xff, 0x04, 0x00, 0x00, 0x00,
  0x10, 0x00, 0x00, 0x00, 0x04, 0x00, 0x00, 0x00, 0x01, 0x00, 0x00, 0x00,
  0x1d, 0x00, 0x00, 0x00, 0x02, 0x00, 0x00, 0x00, 0x1c, 0x00, 0x00, 0x00,
  0x0f, 0x00, 0x00, 0x00, 0xde, 0xfd, 0xff, 0xff, 0x00, 0x00, 0x00, 0x16,
  0x18, 0x00, 0x00, 0x00, 0x0c, 0x00, 0x00, 0x00, 0x04, 0x00, 0x00, 0x00,
  0x30, 0xf1, 0xff, 0xff, 0x01, 0x00, 0x00, 0x00, 0x1c, 0x00, 0x00, 0x00,
  0x02, 0x00, 0x00, 0x00, 0x1b, 0x00, 0x00, 0x00, 0x0b, 0x00, 0x00, 0x00,
  0x3a, 0xfe, 0xff, 0xff, 0x04, 0x00, 0x00, 0x00, 0x10, 0x00, 0x00, 0x00,
  0x04, 0x00, 0x00, 0x00, 0x01, 0x00, 0x00, 0x00, 0x1b, 0x00, 0x00, 0x00,
  0x02, 0x00, 0x00, 0x00, 0x1a, 0x00, 0x00, 0x00, 0x10, 0x00, 0x00, 0x00,
  0xba, 0xfe, 0xff, 0xff, 0x00, 0x00, 0x00, 0x05, 0x06, 0x00, 0x00, 0x00,
  0x3c, 0x00, 0x00, 0x00, 0x30, 0x00, 0x00, 0x00, 0x14, 0x00, 0x00, 0x00,
  0x00, 0x00, 0x0e, 0x00, 0x18, 0x00, 0x07, 0x00, 0x08, 0x00, 0x0c, 0x00,
  0x10, 0x00, 0x14, 0x00, 0x0e, 0x00, 0x00, 0x00, 0x00, 0x00, 0x00, 0x01,
  0x04, 0x00, 0x00, 0x00, 0x01, 0x00, 0x00, 0x00, 0x04, 0x00, 0x00, 0x00,
  0x01, 0x00, 0x00, 0x00, 0x01, 0x00, 0x00, 0x00, 0x1a, 0x00, 0x00, 0x00,
  0x01, 0x00, 0x00, 0x00, 0x19, 0x00, 0x00, 0x00, 0xae, 0xfe, 0xff, 0xff,
  0x04, 0x00, 0x00, 0x00, 0x10, 0x00, 0x00, 0x00, 0x04, 0x00, 0x00, 0x00,
  0x01, 0x00, 0x00, 0x00, 0x19, 0x00, 0x00, 0x00, 0x02, 0x00, 0x00, 0x00,
  0x18, 0x00, 0x00, 0x00, 0x0f, 0x00, 0x00, 0x00, 0xa2, 0xfe, 0xff, 0xff,
  0x00, 0x00, 0x00, 0x16, 0x18, 0x00, 0x00, 0x00, 0x0c, 0x00, 0x00, 0x00,
  0x04, 0x00, 0x00, 0x00, 0xf4, 0xf1, 0xff, 0xff, 0x01, 0x00, 0x00, 0x00,
  0x18, 0x00, 0x00, 0x00, 0x02, 0x00, 0x00, 0x00, 0x17, 0x00, 0x00, 0x00,
  0x0c, 0x00, 0x00, 0x00, 0xfe, 0xfe, 0xff, 0xff, 0x05, 0x00, 0x00, 0x00,
  0x10, 0x00, 0x00, 0x00, 0x04, 0x00, 0x00, 0x00, 0x01, 0x00, 0x00, 0x00,
  0x17, 0x00, 0x00, 0x00, 0x01, 0x00, 0x00, 0x00, 0x16, 0x00, 0x00, 0x00,
  0x1e, 0xff, 0xff, 0xff, 0x04, 0x00, 0x00, 0x00, 0x10, 0x00, 0x00, 0x00,
  0x04, 0x00, 0x00, 0x00, 0x01, 0x00, 0x00, 0x00, 0x16, 0x00, 0x00, 0x00,
  0x02, 0x00, 0x00, 0x00, 0x15, 0x00, 0x00, 0x00, 0x10, 0x00, 0x00, 0x00,
  0x00, 0x00, 0x0e, 0x00, 0x18, 0x00, 0x08, 0x00, 0x0c, 0x00, 0x10, 0x00,
  0x07, 0x00, 0x14, 0x00, 0x0e, 0x00, 0x00, 0x00, 0x00, 0x00, 0x00, 0x02,
  0x03, 0x00, 0x00, 0x00, 0x34, 0x00, 0x00, 0x00, 0x28, 0x00, 0x00, 0x00,
  0x10, 0x00, 0x00, 0x00, 0x0c, 0x00, 0x14, 0x00, 0x07, 0x00, 0x08, 0x00,
  0x0c, 0x00, 0x10, 0x00, 0x0c, 0x00, 0x00, 0x00, 0x00, 0x00, 0x00, 0x01,
  0x01, 0x00, 0x00, 0x00, 0x01, 0x00, 0x00, 0x00, 0x02, 0x00, 0x00, 0x00,
  0x01, 0x00, 0x00, 0x00, 0x15, 0x00, 0x00, 0x00, 0x03, 0x00, 0x00, 0x00,
  0x14, 0x00, 0x00, 0x00, 0x08, 0x00, 0x00, 0x00, 0x03, 0x00, 0x00, 0x00,
  0x00, 0x00, 0x0e, 0x00, 0x1a, 0x00, 0x08, 0x00, 0x0c, 0x00, 0x10, 0x00,
  0x07, 0x00, 0x14, 0x00, 0x0e, 0x00, 0x00, 0x00, 0x00, 0x00, 0x00, 0x01,
  0x02, 0x00, 0x00, 0x00, 0x30, 0x00, 0x00, 0x00, 0x24, 0x00, 0x00, 0x00,
  0x10, 0x00, 0x00, 0x00, 0x00, 0x00, 0x0a, 0x00, 0x10, 0x00, 0x07, 0x00,
  0x08, 0x00, 0x0c, 0x00, 0x0a, 0x00, 0x00, 0x00, 0x00, 0x00, 0x00, 0x01,
  0x01, 0x00, 0x00, 0x00, 0x01, 0x00, 0x00, 0x00, 0x01, 0x00, 0x00, 0x00,
  0x14, 0x00, 0x00, 0x00, 0x03, 0x00, 0x00, 0x00, 0x13, 0x00, 0x00, 0x00,
  0x09, 0x00, 0x00, 0x00, 0x04, 0x00, 0x00, 0x00, 0x00, 0x00, 0x0a, 0x00,
  0x10, 0x00, 0x04, 0x00, 0x08, 0x00, 0x0c, 0x00, 0x0a, 0x00, 0x00, 0x00,
  0x01, 0x00, 0x00, 0x00, 0x10, 0x00, 0x00, 0x00, 0x04, 0x00, 0x00, 0x00,
  0x01, 0x00, 0x00, 0x00, 0x13, 0x00, 0x00, 0x00, 0x02, 0x00, 0x00, 0x00,
  0x12, 0x00, 0x00, 0x00, 0x01, 0x00, 0x00, 0x00, 0x00, 0x00, 0x0e, 0x00,
  0x14, 0x00, 0x00, 0x00, 0x08, 0x00, 0x0c, 0x00, 0x07, 0x00, 0x10, 0x00,
  0x0e, 0x00, 0x00, 0x00, 0x00, 0x00, 0x00, 0x16, 0x18, 0x00, 0x00, 0x00,
  0x0c, 0x00, 0x00, 0x00, 0x04, 0x00, 0x00, 0x00, 0x60, 0xf3, 0xff, 0xff,
  0x01, 0x00, 0x00, 0x00, 0x12, 0x00, 0x00, 0x00, 0x02, 0x00, 0x00, 0x00,
  0x00, 0x00, 0x00, 0x00, 0x0d, 0x00, 0x00, 0x00, 0x01, 0x00, 0x00, 0x00,
  0x28, 0x00, 0x00, 0x00, 0x01, 0x00, 0x00, 0x00, 0x00, 0x00, 0x00, 0x00,
  0x29, 0x00, 0x00, 0x00, 0x60, 0x0c, 0x00, 0x00, 0x18, 0x0c, 0x00, 0x00,
  0xb8, 0x0b, 0x00, 0x00, 0x78, 0x0b, 0x00, 0x00, 0x38, 0x0b, 0x00, 0x00,
  0xf4, 0x0a, 0x00, 0x00, 0xb4, 0x0a, 0x00, 0x00, 0x80, 0x0a, 0x00, 0x00,
  0xc0, 0x08, 0x00, 0x00, 0x70, 0x08, 0x00, 0x00, 0x40, 0x08, 0x00, 0x00,
  0xfc, 0x07, 0x00, 0x00, 0xb8, 0x07, 0x00, 0x00, 0x78, 0x07, 0x00, 0x00,
  0x34, 0x07, 0x00, 0x00, 0xf4, 0x06, 0x00, 0x00, 0xb4, 0x06, 0x00, 0x00,
  0x80, 0x06, 0x00, 0x00, 0x30, 0x06, 0x00, 0x00, 0xec, 0x05, 0x00, 0x00,
  0x9c, 0x05, 0x00, 0x00, 0x4c, 0x05, 0x00, 0x00, 0x0c, 0x05, 0x00, 0x00,
  0xc0, 0x04, 0x00, 0x00, 0x70, 0x04, 0x00, 0x00, 0x30, 0x04, 0x00, 0x00,
  0xf4, 0x03, 0x00, 0x00, 0xb4, 0x03, 0x00, 0x00, 0x64, 0x03, 0x00, 0x00,
  0x24, 0x03, 0x00, 0x00, 0xe0, 0x02, 0x00, 0x00, 0x84, 0x02, 0x00, 0x00,
  0x40, 0x02, 0x00, 0x00, 0xf4, 0x01, 0x00, 0x00, 0xa0, 0x01, 0x00, 0x00,
  0x5c, 0x01, 0x00, 0x00, 0x1c, 0x01, 0x00, 0x00, 0xd8, 0x00, 0x00, 0x00,
  0x80, 0x00, 0x00, 0x00, 0x44, 0x00, 0x00, 0x00, 0x04, 0x00, 0x00, 0x00,
  0x52, 0xf4, 0xff, 0xff, 0x2c, 0x00, 0x00, 0x00, 0x29, 0x00, 0x00, 0x00,
  0x0c, 0x00, 0x00, 0x00, 0x04, 0x00, 0x00, 0x00, 0x44, 0xf4, 0xff, 0xff,
  0x11, 0x00, 0x00, 0x00, 0x50, 0x61, 0x72, 0x74, 0x69, 0x74, 0x69, 0x6f,
  0x6e, 0x65, 0x64, 0x43, 0x61, 0x6c, 0x6c, 0x3a, 0x30, 0x00, 0x00, 0x00,
  0x02, 0x00, 0x00, 0x00, 0x01, 0x00, 0x00, 0x00, 0x02, 0x00, 0x00, 0x00,
  0x8e, 0xf4, 0xff, 0xff, 0x28, 0x00, 0x00, 0x00, 0x28, 0x00, 0x00, 0x00,
  0x0c, 0x00, 0x00, 0x00, 0x04, 0x00, 0x00, 0x00, 0x80, 0xf4, 0xff, 0xff,
  0x0c, 0x00, 0x00, 0x00, 0x4d, 0x61, 0x74, 0x4d, 0x75, 0x6c, 0x3b, 0x61,
  0x64, 0x64, 0x5f, 0x34, 0x00, 0x00, 0x00, 0x00, 0x02, 0x00, 0x00, 0x00,
  0x01, 0x00, 0x00, 0x00, 0x02, 0x00, 0x00, 0x00, 0xc6, 0xf4, 0xff, 0xff,
  0x44, 0x00, 0x00, 0x00, 0x27, 0x00, 0x00, 0x00, 0x0c, 0x00, 0x00, 0x00,
  0x04, 0x00, 0x00, 0x00, 0xb8, 0xf4, 0xff, 0xff, 0x29, 0x00, 0x00, 0x00,
  0x66, 0x6c, 0x61, 0x74, 0x74, 0x65, 0x6e, 0x2f, 0x52, 0x65, 0x73, 0x68,
  0x61, 0x70, 0x65, 0x3b, 0x6f, 0x6e, 0x6e, 0x78, 0x5f, 0x74, 0x66, 0x5f,
  0x70, 0x72, 0x65, 0x66, 0x69, 0x78, 0x5f, 0x52, 0x65, 0x73, 0x68, 0x61,
  0x70, 0x65, 0x5f, 0x31, 0x37, 0x00, 0x00, 0x00, 0x02, 0x00, 0x00, 0x00,
  0x01, 0x00, 0x00, 0x00, 0xf0, 0x00, 0x00, 0x00, 0x1a, 0xf5, 0xff, 0xff,
  0x28, 0x00, 0x00, 0x00, 0x26, 0x00, 0x00, 0x00, 0x0c, 0x00, 0x00, 0x00,
  0x04, 0x00, 0x00, 0x00, 0x0c, 0xf5, 0xff, 0xff, 0x0c, 0x00, 0x00, 0x00,
  0x74, 0x72, 0x61, 0x6e, 0x73, 0x70, 0x6f, 0x73, 0x65, 0x5f, 0x31, 0x35,
  0x00, 0x00, 0x00, 0x00, 0x04, 0x00, 0x00, 0x00, 0x01, 0x00, 0x00, 0x00,
  0x10, 0x00, 0x00, 0x00, 0x01, 0x00, 0x00, 0x00, 0x0f, 0x00, 0x00, 0x00,
  0x5a, 0xf5, 0xff, 0xff, 0x24, 0x00, 0x00, 0x00, 0x25, 0x00, 0x00, 0x00,
  0x0c, 0x00, 0x00, 0x00, 0x04, 0x00, 0x00, 0x00, 0x4c, 0xf5, 0xff, 0xff,
  0x09, 0x00, 0x00, 0x00, 0x41, 0x76, 0x67, 0x50, 0x6f, 0x6f, 0x6c, 0x5f,
  0x31, 0x00, 0x00, 0x00, 0x04, 0x00, 0x00, 0x00, 0x01, 0x00, 0x00, 0x00,
  0x01, 0x00, 0x00, 0x00, 0x0f, 0x00, 0x00, 0x00, 0x10, 0x00, 0x00, 0x00,
  0x96, 0xf5, 0xff, 0xff, 0x28, 0x00, 0x00, 0x00, 0x24, 0x00, 0x00, 0x00,
  0x0c, 0x00, 0x00, 0x00, 0x04, 0x00, 0x00, 0x00, 0x88, 0xf5, 0xff, 0xff,
  0x0c, 0x00, 0x00, 0x00, 0x74, 0x72, 0x61, 0x6e, 0x73, 0x70, 0x6f, 0x73,
  0x65, 0x5f, 0x31, 0x34, 0x00, 0x00, 0x00, 0x00, 0x04, 0x00, 0x00, 0x00,
  0x01, 0x00, 0x00, 0x00, 0x01, 0x00, 0x00, 0x00, 0x78, 0x00, 0x00, 0x00,
  0x10, 0x00, 0x00, 0x00, 0xd6, 0xf5, 0xff, 0xff, 0x38, 0x00, 0x00, 0x00,
  0x23, 0x00, 0x00, 0x00, 0x0c, 0x00, 0x00, 0x00, 0x04, 0x00, 0x00, 0x00,
  0xc8, 0xf5, 0xff, 0xff, 0x1c, 0x00, 0x00, 0x00, 0x63, 0x6f, 0x6e, 0x64,
  0x5f, 0x33, 0x2f, 0x6f, 0x6e, 0x6e, 0x78, 0x5f, 0x74, 0x66, 0x5f, 0x70,
  0x72, 0x65, 0x66, 0x69, 0x78, 0x5f, 0x50, 0x61, 0x64, 0x5f, 0x31, 0x30,
  0x00, 0x00, 0x00, 0x00, 0x04, 0x00, 0x00, 0x00, 0x01, 0x00, 0x00, 0x00,
  0x10, 0x00, 0x00, 0x00, 0x01, 0x00, 0x00, 0x00, 0x78, 0x00, 0x00, 0x00,
  0x26, 0xf6, 0xff, 0xff, 0x30, 0x00, 0x00, 0x00, 0x22, 0x00, 0x00, 0x00,
  0x0c, 0x00, 0x00, 0x00, 0x04, 0x00, 0x00, 0x00, 0x18, 0xf6, 0xff, 0xff,
  0x14, 0x00, 0x00, 0x00, 0x6f, 0x6e, 0x6e, 0x78, 0x5f, 0x74, 0x66, 0x5f,
  0x70, 0x72, 0x65, 0x66, 0x69, 0x78, 0x5f, 0x45, 0x6c, 0x75, 0x5f, 0x39,
  0x00, 0x00, 0x00, 0x00, 0x04, 0x00, 0x00, 0x00, 0x01, 0x00, 0x00, 0x00,
  0x10, 0x00, 0x00, 0x00, 0x01, 0x00, 0x00, 0x00, 0x78, 0x00, 0x00, 0x00,
  0x6e, 0xf6, 0xff, 0xff, 0x28, 0x00, 0x00, 0x00, 0x21, 0x00, 0x00, 0x00,
  0x0c, 0x00, 0x00, 0x00, 0x04, 0x00, 0x00, 0x00, 0x60, 0xf6, 0xff, 0xff,
  0x0c, 0x00, 0x00, 0x00, 0x74, 0x72, 0x61, 0x6e, 0x73, 0x70, 0x6f, 0x73,
  0x65, 0x5f, 0x31, 0x33, 0x00, 0x00, 0x00, 0x00, 0x04, 0x00, 0x00, 0x00,
  0x01, 0x00, 0x00, 0x00, 0x10, 0x00, 0x00, 0x00, 0x01, 0x00, 0x00, 0x00,
  0x78, 0x00, 0x00, 0x00, 0xae, 0xf6, 0xff, 0xff, 0x40, 0x00, 0x00, 0x00,
  0x20, 0x00, 0x00, 0x00, 0x0c, 0x00, 0x00, 0x00, 0x04, 0x00, 0x00, 0x00,
  0xa0, 0xf6, 0xff, 0xff, 0x26, 0x00, 0x00, 0x00, 0x41, 0x64, 0x64, 0x5f,
  0x32, 0x3b, 0x64, 0x65, 0x70, 0x74, 0x68, 0x77, 0x69, 0x73, 0x65, 0x3b,
  0x63, 0x6f, 0x6e, 0x76, 0x6f, 0x6c, 0x75, 0x74, 0x69, 0x6f, 0x6e, 0x5f,
  0x31, 0x3b, 0x43, 0x6f, 0x6e, 0x73, 0x74, 0x5f, 0x36, 0x31, 0x00, 0x00,
  0x04, 0x00, 0x00, 0x00, 0x01, 0x00, 0x00, 0x00, 0x01, 0x00, 0x00, 0x00,
  0x78, 0x00, 0x00, 0x00, 0x10, 0x00, 0x00, 0x00, 0x06, 0xf7, 0xff, 0xff,
  0x28, 0x00, 0x00, 0x00, 0x1f, 0x00, 0x00, 0x00, 0x0c, 0x00, 0x00, 0x00,
  0x04, 0x00, 0x00, 0x00, 0xf8, 0xf6, 0xff, 0xff, 0x0c, 0x00, 0x00, 0x00,
  0x64, 0x65, 0x70, 0x74, 0x68, 0x77, 0x69, 0x73, 0x65, 0x5f, 0x31, 0x31,
  0x00, 0x00, 0x00, 0x00, 0x04, 0x00, 0x00, 0x00, 0x01, 0x00, 0x00, 0x00,
  0x01, 0x00, 0x00, 0x00, 0x78, 0x00, 0x00, 0x00, 0x10, 0x00, 0x00, 0x00,
  0x46, 0xf7, 0xff, 0xff, 0x24, 0x00, 0x00, 0x00, 0x1e, 0x00, 0x00, 0x00,
  0x0c, 0x00, 0x00, 0x00, 0x04, 0x00, 0x00, 0x00, 0x38, 0xf7, 0xff, 0xff,
  0x0b, 0x00, 0x00, 0x00, 0x74, 0x72, 0x61, 0x6e, 0x73, 0x70, 0x6f, 0x73,
  0x65, 0x5f, 0x39, 0x00, 0x04, 0x00, 0x00, 0x00, 0x01, 0x00, 0x00, 0x00,
  0x01, 0x00, 0x00, 0x00, 0x87, 0x00, 0x00, 0x00, 0x10, 0x00, 0x00, 0x00,
  0x82, 0xf7, 0xff, 0xff, 0x34, 0x00, 0x00, 0x00, 0x1d, 0x00, 0x00, 0x00,
  0x0c, 0x00, 0x00, 0x00, 0x04, 0x00, 0x00, 0x00, 0x74, 0xf7, 0xff, 0xff,
  0x1b, 0x00, 0x00, 0x00, 0x63, 0x6f, 0x6e, 0x64, 0x5f, 0x32, 0x2f, 0x6f,
  0x6e, 0x6e, 0x78, 0x5f, 0x74, 0x66, 0x5f, 0x70, 0x72, 0x65, 0x66, 0x69,
  0x78, 0x5f, 0x50, 0x61, 0x64, 0x5f, 0x36, 0x00, 0x04, 0x00, 0x00, 0x00,
  0x01, 0x00, 0x00, 0x00, 0x10, 0x00, 0x00, 0x00, 0x01, 0x00, 0x00, 0x00,
  0x87, 0x00, 0x00, 0x00, 0xce, 0xf7, 0xff, 0xff, 0x24, 0x00, 0x00, 0x00,
  0x1c, 0x00, 0x00, 0x00, 0x0c, 0x00, 0x00, 0x00, 0x04, 0x00, 0x00, 0x00,
  0xc0, 0xf7, 0xff, 0xff, 0x0b, 0x00, 0x00, 0x00, 0x74, 0x72, 0x61, 0x6e,
  0x73, 0x70, 0x6f, 0x73, 0x65, 0x5f, 0x37, 0x00, 0x04, 0x00, 0x00, 0x00,
  0x01, 0x00, 0x00, 0x00, 0x10, 0x00, 0x00, 0x00, 0x01, 0x00, 0x00, 0x00,
  0x78, 0x00, 0x00, 0x00, 0x0a, 0xf8, 0xff, 0xff, 0x20, 0x00, 0x00, 0x00,
  0x1b, 0x00, 0x00, 0x00, 0x0c, 0x00, 0x00, 0x00, 0x04, 0x00, 0x00, 0x00,
  0xfc, 0xf7, 0xff, 0xff, 0x07, 0x00, 0x00, 0x00, 0x41, 0x76, 0x67, 0x50,
  0x6f, 0x6f, 0x6c, 0x00, 0x04, 0x00, 0x00, 0x00, 0x01, 0x00, 0x00, 0x00,
  0x01, 0x00, 0x00, 0x00, 0x78, 0x00, 0x00, 0x00, 0x10, 0x00, 0x00, 0x00,
  0x42, 0xf8, 0xff, 0xff, 0x24, 0x00, 0x00, 0x00, 0x1a, 0x00, 0x00, 0x00,
  0x0c, 0x00, 0x00, 0x00, 0x04, 0x00, 0x00, 0x00, 0x34, 0xf8, 0xff, 0xff,
  0x0b, 0x00, 0x00, 0x00, 0x74, 0x72, 0x61, 0x6e, 0x73, 0x70, 0x6f, 0x73,
  0x65, 0x5f, 0x36, 0x00, 0x04, 0x00, 0x00, 0x00, 0x01, 0x00, 0x00, 0x00,
  0x01, 0x00, 0x00, 0x00, 0xe0, 0x01, 0x00, 0x00, 0x10, 0x00, 0x00, 0x00,
  0x7e, 0xf8, 0xff, 0xff, 0x34, 0x00, 0x00, 0x00, 0x19, 0x00, 0x00, 0x00,
  0x0c, 0x00, 0x00, 0x00, 0x04, 0x00, 0x00, 0x00, 0x70, 0xf8, 0xff, 0xff,
  0x1b, 0x00, 0x00, 0x00, 0x63, 0x6f, 0x6e, 0x64, 0x5f, 0x31, 0x2f, 0x6f,
  0x6e, 0x6e, 0x78, 0x5f, 0x74, 0x66, 0x5f, 0x70, 0x72, 0x65, 0x66, 0x69,
  0x78, 0x5f, 0x50, 0x61, 0x64, 0x5f, 0x34, 0x00, 0x04, 0x00, 0x00, 0x00,
  0x01, 0x00, 0x00, 0x00, 0x10, 0x00, 0x00, 0x00, 0x01, 0x00, 0x00, 0x00,
  0xe0, 0x01, 0x00, 0x00, 0xca, 0xf8, 0xff, 0xff, 0x30, 0x00, 0x00, 0x00,
  0x18, 0x00, 0x00, 0x00, 0x0c, 0x00, 0x00, 0x00, 0x04, 0x00, 0x00, 0x00,
  0xbc, 0xf8, 0xff, 0xff, 0x14, 0x00, 0x00, 0x00, 0x6f, 0x6e, 0x6e, 0x78,
  0x5f, 0x74, 0x66, 0x5f, 0x70, 0x72, 0x65, 0x66, 0x69, 0x78, 0x5f, 0x45,
  0x6c, 0x75, 0x5f, 0x33, 0x00, 0x00, 0x00, 0x00, 0x04, 0x00, 0x00, 0x00,
  0x01, 0x00, 0x00, 0x00, 0x10, 0x00, 0x00, 0x00, 0x01, 0x00, 0x00, 0x00,
  0xe0, 0x01, 0x00, 0x00, 0x12, 0xf9, 0xff, 0xff, 0x24, 0x00, 0x00, 0x00,
  0x17, 0x00, 0x00, 0x00, 0x0c, 0x00, 0x00, 0x00, 0x04, 0x00, 0x00, 0x00,
  0x04, 0xf9, 0xff, 0xff, 0x0b, 0x00, 0x00, 0x00, 0x74, 0x72, 0x61, 0x6e,
  0x73, 0x70, 0x6f, 0x73, 0x65, 0x5f, 0x35, 0x00, 0x04, 0x00, 0x00, 0x00,
  0x01, 0x00, 0x00, 0x00, 0x10, 0x00, 0x00, 0x00, 0x01, 0x00, 0x00, 0x00,
  0xe0, 0x01, 0x00, 0x00, 0x4e, 0xf9, 0xff, 0xff, 0x34, 0x00, 0x00, 0x00,
  0x16, 0x00, 0x00, 0x00, 0x0c, 0x00, 0x00, 0x00, 0x04, 0x00, 0x00, 0x00,
  0x40, 0xf9, 0xff, 0xff, 0x18, 0x00, 0x00, 0x00, 0x41, 0x64, 0x64, 0x5f,
  0x31, 0x3b, 0x64, 0x65, 0x70, 0x74, 0x68, 0x77, 0x69, 0x73, 0x65, 0x3b,
  0x43, 0x6f, 0x6e, 0x73, 0x74, 0x5f, 0x33, 0x31, 0x00, 0x00, 0x00, 0x00,
  0x04, 0x00, 0x00, 0x00, 0x01, 0x00, 0x00, 0x00, 0x01, 0x00, 0x00, 0x00,
  0xe0, 0x01, 0x00, 0x00, 0x10, 0x00, 0x00, 0x00, 0x9a, 0xf9, 0xff, 0xff,
  0x34, 0x00, 0x00, 0x00, 0x15, 0x00, 0x00, 0x00, 0x0c, 0x00, 0x00, 0x00,
  0x04, 0x00, 0x00, 0x00, 0x8c, 0xf9, 0xff, 0xff, 0x18, 0x00, 0x00, 0x00,
  0x41, 0x64, 0x64, 0x3b, 0x63, 0x6f, 0x6e, 0x76, 0x6f, 0x6c, 0x75, 0x74,
  0x69, 0x6f, 0x6e, 0x3b, 0x43, 0x6f, 0x6e, 0x73, 0x74, 0x5f, 0x31, 0x31,
  0x00, 0x00, 0x00, 0x00, 0x04, 0x00, 0x00, 0x00, 0x01, 0x00, 0x00, 0x00,
  0x40, 0x00, 0x00, 0x00, 0xe0, 0x01, 0x00, 0x00, 0x08, 0x00, 0x00, 0x00,
  0xe6, 0xf9, 0xff, 0xff, 0x28, 0x00, 0x00, 0x00, 0x14, 0x00, 0x00, 0x00,
  0x0c, 0x00, 0x00, 0x00, 0x04, 0x00, 0x00, 0x00, 0xd8, 0xf9, 0xff, 0xff,
  0x0c, 0x00, 0x00, 0x00, 0x74, 0x72, 0x61, 0x6e, 0x73, 0x70, 0x6f, 0x73,
  0x65, 0x5f, 0x31, 0x31, 0x00, 0x00, 0x00, 0x00, 0x04, 0x00, 0x00, 0x00,
  0x01, 0x00, 0x00, 0x00, 0x40, 0x00, 0x00, 0x00, 0x2f, 0x02, 0x00, 0x00,
  0x01, 0x00, 0x00, 0x00, 0x26, 0xfa, 0xff, 0xff, 0x34, 0x00, 0x00, 0x00,
  0x13, 0x00, 0x00, 0x00, 0x0c, 0x00, 0x00, 0x00, 0x04, 0x00, 0x00, 0x00,
  0x18, 0xfa, 0xff, 0xff, 0x19, 0x00, 0x00, 0x00, 0x63, 0x6f, 0x6e, 0x64,
  0x2f, 0x6f, 0x6e, 0x6e, 0x78, 0x5f, 0x74, 0x66, 0x5f, 0x70, 0x72, 0x65,
  0x66, 0x69, 0x78, 0x5f, 0x50, 0x61, 0x64, 0x5f, 0x30, 0x00, 0x00, 0x00,
  0x04, 0x00, 0x00, 0x00, 0x01, 0x00, 0x00, 0x00, 0x01, 0x00, 0x00, 0x00,
  0x40, 0x00, 0x00, 0x00, 0x2f, 0x02, 0x00, 0x00, 0x72, 0xfa, 0xff, 0xff,
  0x20, 0x00, 0x00, 0x00, 0x12, 0x00, 0x00, 0x00, 0x0c, 0x00, 0x00, 0x00,
  0x04, 0x00, 0x00, 0x00, 0x64, 0xfa, 0xff, 0xff, 0x06, 0x00, 0x00, 0x00,
  0x4d, 0x61, 0x74, 0x4d, 0x75, 0x6c, 0x00, 0x00, 0x02, 0x00, 0x00, 0x00,
  0x02, 0x00, 0x00, 0x00, 0xf0, 0x00, 0x00, 0x00, 0xe6, 0xfa, 0xff, 0xff,
  0x00, 0x00, 0x00, 0x02, 0x2c, 0x00, 0x00, 0x00, 0x11, 0x00, 0x00, 0x00,
  0x0c, 0x00, 0x00, 0x00, 0x04, 0x00, 0x00, 0x00, 0x98, 0xfa, 0xff, 0xff,
  0x11, 0x00, 0x00, 0x00, 0x74, 0x72, 0x61, 0x6e, 0x73, 0x70, 0x6f, 0x73,
  0x65, 0x5f, 0x31, 0x30, 0x2f, 0x70, 0x65, 0x72, 0x6d, 0x00, 0x00, 0x00,
  0x01, 0x00, 0x00, 0x00, 0x04, 0x00, 0x00, 0x00, 0x22, 0xfb, 0xff, 0xff,
  0x00, 0x00, 0x00, 0x02, 0x2c, 0x00, 0x00, 0x00, 0x10, 0x00, 0x00, 0x00,
  0x0c, 0x00, 0x00, 0x00, 0x04, 0x00, 0x00, 0x00, 0xd4, 0xfa, 0xff, 0xff,
  0x10, 0x00, 0x00, 0x00, 0x74, 0x72, 0x61, 0x6e, 0x73, 0x70, 0x6f, 0x73,
  0x65, 0x5f, 0x31, 0x2f, 0x70, 0x65, 0x72, 0x6d, 0x00, 0x00, 0x00, 0x00,
  0x01, 0x00, 0x00, 0x00, 0x04, 0x00, 0x00, 0x00, 0x5e, 0xfb, 0xff, 0xff,
  0x00, 0x00, 0x00, 0x02, 0x30, 0x00, 0x00, 0x00, 0x0f, 0x00, 0x00, 0x00,
  0x0c, 0x00, 0x00, 0x00, 0x04, 0x00, 0x00, 0x00, 0x10, 0xfb, 0xff, 0xff,
  0x15, 0x00, 0x00, 0x00, 0x66, 0x6c, 0x61, 0x74, 0x74, 0x65, 0x6e, 0x2f,
  0x52, 0x65, 0x73, 0x68, 0x61, 0x70, 0x65, 0x2f, 0x73, 0x68, 0x61, 0x70,
  0x65, 0x00, 0x00, 0x00, 0x01, 0x00, 0x00, 0x00, 0x02, 0x00, 0x00, 0x00,
  0x9e, 0xfb, 0xff, 0xff, 0x00, 0x00, 0x00, 0x02, 0x28, 0x00, 0x00, 0x00,
  0x0e, 0x00, 0x00, 0x00, 0x0c, 0x00, 0x00, 0x00, 0x04, 0x00, 0x00, 0x00,
  0x50, 0xfb, 0xff, 0xff, 0x0e, 0x00, 0x00, 0x00, 0x63, 0x6f, 0x6e, 0x64,
  0x2f, 0x74, 0x72, 0x61, 0x6e, 0x73, 0x70, 0x6f, 0x73, 0x65, 0x00, 0x00,
  0x02, 0x00, 0x00, 0x00, 0x04, 0x00, 0x00, 0x00, 0x02, 0x00, 0x00, 0x00,
  0xda, 0xfb, 0xff, 0xff, 0x00, 0x00, 0x00, 0x02, 0x2c, 0x00, 0x00, 0x00,
  0x0d, 0x00, 0x00, 0x00, 0x0c, 0x00, 0x00, 0x00, 0x04, 0x00, 0x00, 0x00,
  0x8c, 0xfb, 0xff, 0xff, 0x10, 0x00, 0x00, 0x00, 0x63, 0x6f, 0x6e, 0x64,
  0x5f, 0x31, 0x2f, 0x74, 0x72, 0x61, 0x6e, 0x73, 0x70, 0x6f, 0x73, 0x65,
  0x00, 0x00, 0x00, 0x00, 0x02, 0x00, 0x00, 0x00, 0x04, 0x00, 0x00, 0x00,
  0x02, 0x00, 0x00, 0x00, 0x1a, 0xfc, 0xff, 0xff, 0x00, 0x00, 0x00, 0x02,
  0x2c, 0x00, 0x00, 0x00, 0x0c, 0x00, 0x00, 0x00, 0x0c, 0x00, 0x00, 0x00,
  0x04, 0x00, 0x00, 0x00, 0xcc, 0xfb, 0xff, 0xff, 0x10, 0x00, 0x00, 0x00,
  0x63, 0x6f, 0x6e, 0x64, 0x5f, 0x32, 0x2f, 0x74, 0x72, 0x61, 0x6e, 0x73,
  0x70, 0x6f, 0x73, 0x65, 0x00, 0x00, 0x00, 0x00, 0x02, 0x00, 0x00, 0x00,
  0x04, 0x00, 0x00, 0x00, 0x02, 0x00, 0x00, 0x00, 0x16, 0xfc, 0xff, 0xff,
  0x20, 0x00, 0x00, 0x00, 0x0b, 0x00, 0x00, 0x00, 0x0c, 0x00, 0x00, 0x00,
  0x04, 0x00, 0x00, 0x00, 0x08, 0xfc, 0xff, 0xff, 0x07, 0x00, 0x00, 0x00,
  0x43, 0x6f, 0x6e, 0x73, 0x74, 0x5f, 0x39, 0x00, 0x01, 0x00, 0x00, 0x00,
  0x02, 0x00, 0x00, 0x00, 0x42, 0xfc, 0xff, 0xff, 0x24, 0x00, 0x00, 0x00,
  0x0a, 0x00, 0x00, 0x00, 0x0c, 0x00, 0x00, 0x00, 0x04, 0x00, 0x00, 0x00,
  0x34, 0xfc, 0xff, 0xff, 0x0b, 0x00, 0x00, 0x00, 0x63, 0x6f, 0x6e, 0x76,
  0x6f, 0x6c, 0x75, 0x74, 0x69, 0x6f, 0x6e, 0x00, 0x04, 0x00, 0x00, 0x00,
  0x08, 0x00, 0x00, 0x00, 0x01, 0x00, 0x00, 0x00, 0x50, 0x00, 0x00, 0x00,
  0x01, 0x00, 0x00, 0x00, 0x00, 0x00, 0x0e, 0x00, 0x1a, 0x00, 0x08, 0x00,
  0x07, 0x00, 0x0c, 0x00, 0x10, 0x00, 0x14, 0x00, 0x0e, 0x00, 0x00, 0x00,
  0x00, 0x00, 0x00, 0x09, 0xa0, 0x01, 0x00, 0x00, 0x09, 0x00, 0x00, 0x00,
  0x88, 0x01, 0x00, 0x00, 0x18, 0x00, 0x00, 0x00, 0x00, 0x00, 0x12, 0x00,
  0x18, 0x00, 0x04, 0x00, 0x08, 0x00, 0x0c, 0x00, 0x10, 0x00, 0x00, 0x00,
  0x00, 0x00, 0x14, 0x00, 0x12, 0x00, 0x00, 0x00, 0x24, 0x01, 0x00, 0x00,
  0xdc, 0x00, 0x00, 0x00, 0x94, 0x00, 0x00, 0x00, 0x08, 0x00, 0x00, 0x00,
  0x03, 0x00, 0x00, 0x00, 0x10, 0x00, 0x00, 0x00, 0x00, 0x00, 0x00, 0x00,
  0x00, 0x00, 0x00, 0x00, 0x00, 0x00, 0x00, 0x00, 0x00, 0x00, 0x00, 0x00,
  0x00, 0x00, 0x00, 0x00, 0x00, 0x00, 0x00, 0x00, 0x00, 0x00, 0x00, 0x00,
  0x00, 0x00, 0x00, 0x00, 0x00, 0x00, 0x00, 0x00, 0x00, 0x00, 0x00, 0x00,
  0x00, 0x00, 0x00, 0x00, 0x00, 0x00, 0x00, 0x00, 0x00, 0x00, 0x00, 0x00,
  0x00, 0x00, 0x00, 0x00, 0x00, 0x00, 0x00, 0x00, 0x00, 0x00, 0x00, 0x00,
  0x00, 0x00, 0x00, 0x00, 0x00, 0x00, 0x00, 0x00, 0x00, 0x00, 0x00, 0x00,
  0x00, 0x00, 0x00, 0x00, 0x00, 0x00, 0x00, 0x00, 0x00, 0x00, 0x00, 0x00,
  0x00, 0x00, 0x00, 0x00, 0x00, 0x00, 0x00, 0x00, 0x00, 0x00, 0x00, 0x00,
  0x00, 0x00, 0x00, 0x00, 0x00, 0x00, 0x00, 0x00, 0x00, 0x00, 0x00, 0x00,
  0x00, 0x00, 0x00, 0x00, 0x00, 0x00, 0x00, 0x00, 0x00, 0x00, 0x00, 0x00,
  0x00, 0x00, 0x00, 0x00, 0x00, 0x00, 0x00, 0x00, 0x10, 0x00, 0x00, 0x00,
  0x57, 0x05, 0x9d, 0x3d, 0x39, 0x5d, 0x34, 0x3e, 0xfd, 0x12, 0xad, 0x3d,
  0x9d, 0xea, 0x08, 0x3d, 0x4f, 0xc3, 0x51, 0x3e, 0x0d, 0xc0, 0x31, 0x3d,
  0xb3, 0xd7, 0xa5, 0x3d, 0x0b, 0x6e, 0xc0, 0x3d, 0x41, 0xf2, 0x0d, 0x3d,
  0x62, 0xdd, 0x10, 0x3c, 0x56, 0x5d, 0x2d, 0x3d, 0xa7, 0xca, 0x71, 0x3d,
  0x78, 0x58, 0x3d, 0x3e, 0x09, 0x1e, 0x8e, 0x3d, 0xc5, 0x73, 0x33, 0x3e,
  0xc8, 0x68, 0xfa, 0x3d, 0x10, 0x00, 0x00, 0x00, 0x4c, 0xcb, 0x1b, 0x41,
  0x7f, 0xf4, 0xb2, 0x41, 0x2c, 0xb9, 0x10, 0x41, 0xc8, 0xd8, 0x87, 0x40,
  0xea, 0x0b, 0x9b, 0x41, 0x4f, 0x8b, 0xa8, 0x40, 0x04, 0x8c, 0x24, 0x41,
  0x2f, 0xed, 0x3e, 0x41, 0xfe, 0xbe, 0xf9, 0x3f, 0x82, 0xf6, 0xf8, 0x3e,
  0x07, 0xed, 0x83, 0x40, 0x23, 0xc0, 0xe7, 0x40, 0xc7, 0xdd, 0xbb, 0x41,
  0xcd, 0x01, 0x0d, 0x41, 0xdd, 0x0c, 0xb2, 0x41, 0xf6, 0x73, 0x78, 0x41,
  0x10, 0x00, 0x00, 0x00, 0x4a, 0xde, 0xdb, 0xc0, 0x2b, 0xb8, 0xa7, 0xc1,
  0xd7, 0xb8, 0x2b, 0xc1, 0xaa, 0x93, 0xb8, 0xbf, 0xc8, 0x1f, 0xd0, 0xc1,
  0x8d, 0x5c, 0xb0, 0xc0, 0x7d, 0x7a, 0xe3, 0xc0, 0x59, 0xcc, 0x01, 0xc1,
  0x5c, 0xd6, 0x8c, 0xc0, 0xa7, 0xbb, 0x8f, 0xbf, 0x9b, 0x02, 0xac, 0xc0,
  0x12, 0xe7, 0xef, 0xc0, 0x9d, 0xbf, 0x3a, 0xc1, 0x7d, 0xe2, 0x03, 0xc1,
  0x80, 0x70, 0x8a, 0xc1, 0xfb, 0xd4, 0x76, 0xc1, 0x0a, 0x00, 0x00, 0x00,
  0x64, 0x65, 0x70, 0x74, 0x68, 0x77, 0x69, 0x73, 0x65, 0x31, 0x00, 0x00,
  0x04, 0x00, 0x00, 0x00, 0x01, 0x00, 0x00, 0x00, 0x40, 0x00, 0x00, 0x00,
  0x01, 0x00, 0x00, 0x00, 0x10, 0x00, 0x00, 0x00, 0x4a, 0xfe, 0xff, 0xff,
  0x24, 0x00, 0x00, 0x00, 0x08, 0x00, 0x00, 0x00, 0x0c, 0x00, 0x00, 0x00,
  0x04, 0x00, 0x00, 0x00, 0x3c, 0xfe, 0xff, 0xff, 0x09, 0x00, 0x00, 0x00,
  0x64, 0x65, 0x70, 0x74, 0x68, 0x77, 0x69, 0x73, 0x65, 0x00, 0x00, 0x00,
  0x01, 0x00, 0x00, 0x00, 0x10, 0x00, 0x00, 0x00, 0x7a, 0xfe, 0xff, 0xff,
  0x24, 0x00, 0x00, 0x00, 0x07, 0x00, 0x00, 0x00, 0x0c, 0x00, 0x00, 0x00,
  0x04, 0x00, 0x00, 0x00, 0x6c, 0xfe, 0xff, 0xff, 0x0b, 0x00, 0x00, 0x00,
  0x64, 0x65, 0x70, 0x74, 0x68, 0x77, 0x69, 0x73, 0x65, 0x5f, 0x31, 0x00,
  0x04, 0x00, 0x00, 0x00, 0x01, 0x00, 0x00, 0x00, 0x01, 0x00, 0x00, 0x00,
  0x10, 0x00, 0x00, 0x00, 0x10, 0x00, 0x00, 0x00, 0xb6, 0xfe, 0xff, 0xff,
  0x28, 0x00, 0x00, 0x00, 0x06, 0x00, 0x00, 0x00, 0x0c, 0x00, 0x00, 0x00,
  0x04, 0x00, 0x00, 0x00, 0xa8, 0xfe, 0xff, 0xff, 0x0d, 0x00, 0x00, 0x00,
  0x63, 0x6f, 0x6e, 0x76, 0x6f, 0x6c, 0x75, 0x74, 0x69, 0x6f, 0x6e, 0x5f,
  0x31, 0x00, 0x00, 0x00, 0x04, 0x00, 0x00, 0x00, 0x10, 0x00, 0x00, 0x00,
  0x01, 0x00, 0x00, 0x00, 0x01, 0x00, 0x00, 0x00, 0x10, 0x00, 0x00, 0x00,
  0xf6, 0xfe, 0xff, 0xff, 0x30, 0x00, 0x00, 0x00, 0x05, 0x00, 0x00, 0x00,
  0x0c, 0x00, 0x00, 0x00, 0x04, 0x00, 0x00, 0x00, 0xe8, 0xfe, 0xff, 0xff,
  0x17, 0x00, 0x00, 0x00, 0x41, 0x64, 0x64, 0x3b, 0x63, 0x6f, 0x6e, 0x76,
  0x6f, 0x6c, 0x75, 0x74, 0x69, 0x6f, 0x6e, 0x3b, 0x43, 0x6f, 0x6e, 0x73,
  0x74, 0x5f, 0x31, 0x00, 0x01, 0x00, 0x00, 0x00, 0x08, 0x00, 0x00, 0x00,
  0x32, 0xff, 0xff, 0xff, 0x30, 0x00, 0x00, 0x00, 0x04, 0x00, 0x00, 0x00,
  0x0c, 0x00, 0x00, 0x00, 0x04, 0x00, 0x00, 0x00, 0x24, 0xff, 0xff, 0xff,
  0x17, 0x00, 0x00, 0x00, 0x41, 0x64, 0x64, 0x5f, 0x31, 0x3b, 0x64, 0x65,
  0x70, 0x74, 0x68, 0x77, 0x69, 0x73, 0x65, 0x3b, 0x43, 0x6f, 0x6e, 0x73,
  0x74, 0x5f, 0x33, 0x00, 0x01, 0x00, 0x00, 0x00, 0x10, 0x00, 0x00, 0x00,
  0x6e, 0xff, 0xff, 0xff, 0x40, 0x00, 0x00, 0x00, 0x03, 0x00, 0x00, 0x00,
  0x0c, 0x00, 0x00, 0x00, 0x04, 0x00, 0x00, 0x00, 0x60, 0xff, 0xff, 0xff,
  0x25, 0x00, 0x00, 0x00, 0x41, 0x64, 0x64, 0x5f, 0x32, 0x3b, 0x64, 0x65,
  0x70, 0x74, 0x68, 0x77, 0x69, 0x73, 0x65, 0x3b, 0x63, 0x6f, 0x6e, 0x76,
  0x6f, 0x6c, 0x75, 0x74, 0x69, 0x6f, 0x6e, 0x5f, 0x31, 0x3b, 0x43, 0x6f,
  0x6e, 0x73, 0x74, 0x5f, 0x36, 0x00, 0x00, 0x00, 0x01, 0x00, 0x00, 0x00,
  0x10, 0x00, 0x00, 0x00, 0x00, 0x00, 0x0e, 0x00, 0x18, 0x00, 0x08, 0x00,
  0x07, 0x00, 0x0c, 0x00, 0x10, 0x00, 0x14, 0x00, 0x0e, 0x00, 0x00, 0x00,
  0x00, 0x00, 0x00, 0x02, 0x24, 0x00, 0x00, 0x00, 0x02, 0x00, 0x00, 0x00,
  0x0c, 0x00, 0x00, 0x00, 0x04, 0x00, 0x00, 0x00, 0xc0, 0xff, 0xff, 0xff,
  0x0b, 0x00, 0x00, 0x00, 0x74, 0x72, 0x61, 0x6e, 0x73, 0x70, 0x6f, 0x73,
  0x65, 0x5f, 0x31, 0x00, 0x01, 0x00, 0x00, 0x00, 0x04, 0x00, 0x00, 0x00,
  0x00, 0x00, 0x0e, 0x00, 0x14, 0x00, 0x04, 0x00, 0x00, 0x00, 0x08, 0x00,
  0x0c, 0x00, 0x10, 0x00, 0x0e, 0x00, 0x00, 0x00, 0x38, 0x00, 0x00, 0x00,
  0x01, 0x00, 0x00, 0x00, 0x10, 0x00, 0x00, 0x00, 0x08, 0x00, 0x00, 0x00,
  0x04, 0x00, 0x04, 0x00, 0x04, 0x00, 0x00, 0x00, 0x19, 0x00, 0x00, 0x00,
  0x73, 0x65, 0x72, 0x76, 0x69, 0x6e, 0x67, 0x5f, 0x64, 0x65, 0x66, 0x61,
  0x75, 0x6c, 0x74, 0x5f, 0x69, 0x6e, 0x70, 0x75, 0x74, 0x2e, 0x31, 0x3a,
  0x30, 0x00, 0x00, 0x00, 0x04, 0x00, 0x00, 0x00, 0x01, 0x00, 0x00, 0x00,
  0x01, 0x00, 0x00, 0x00, 0x40, 0x00, 0x00, 0x00, 0xe0, 0x01, 0x00, 0x00,
  0x09, 0x00, 0x00, 0x00, 0xa8, 0x00, 0x00, 0x00, 0x8c, 0x00, 0x00, 0x00,
  0x78, 0x00, 0x00, 0x00, 0x58, 0x00, 0x00, 0x00, 0x48, 0x00, 0x00, 0x00,
  0x38, 0x00, 0x00, 0x00, 0x28, 0x00, 0x00, 0x00, 0x14, 0x00, 0x00, 0x00,
  0x04, 0x00, 0x00, 0x00, 0x88, 0xff, 0xff, 0xff, 0x00, 0x00, 0x00, 0x19,
  0x19, 0x00, 0x00, 0x00, 0xbc, 0xff, 0xff, 0xff, 0x00, 0x00, 0x00, 0x09,
  0x09, 0x00, 0x00, 0x00, 0x09, 0x00, 0x00, 0x00, 0xa4, 0xff, 0xff, 0xff,
  0x00, 0x00, 0x00, 0x01, 0x01, 0x00, 0x00, 0x00, 0xb0, 0xff, 0xff, 0xff,
  0x00, 0x00, 0x00, 0x6f, 0x6f, 0x00, 0x00, 0x00, 0xbc, 0xff, 0xff, 0xff,
  0x00, 0x00, 0x00, 0x27, 0x27, 0x00, 0x00, 0x00, 0xf0, 0xff, 0xff, 0xff,
  0x00, 0x00, 0x00, 0x04, 0x06, 0x00, 0x00, 0x00, 0x04, 0x00, 0x00, 0x00,
  0x0c, 0x00, 0x10, 0x00, 0x07, 0x00, 0x00, 0x00, 0x08, 0x00, 0x0c, 0x00,
  0x0c, 0x00, 0x00, 0x00, 0x00, 0x00, 0x00, 0x03, 0x05, 0x00, 0x00, 0x00,
  0x03, 0x00, 0x00, 0x00, 0xf4, 0xff, 0xff, 0xff, 0x00, 0x00, 0x00, 0x16,
  0x16, 0x00, 0x00, 0x00, 0x0c, 0x00, 0x0c, 0x00, 0x07, 0x00, 0x00, 0x00,
  0x00, 0x00, 0x08, 0x00, 0x0c, 0x00, 0x00, 0x00, 0x00, 0x00, 0x00, 0x22,
  0x22, 0x00, 0x00, 0x00
};
const int g_model_len = 13888;
